{
  "version": "1.0",
  "truncation": null,
  "padding": null,
  "added_tokens": [
    {
      "id": 36000,
      "content": "<|endoftext|>",
      "single_word": false,
      "lstrip": false,
      "rstrip": false,
      "normalized": false,
      "special": true
    },
    {
      "id": 36001,
      "content": "<|im_start|>",
      "single_word": false,
      "lstrip": false,
      "rstrip": false,
      "normalized": false,
      "special": true
    },
    {
      "id": 36002,
      "content": "<|im_end|>",
      "single_word": false,
      "lstrip": false,
      "rstrip": false,
      "normalized": false,
      "special": true
    },
    {
      "id": 36003,
      "content": "<think>",
      "single_word": false,
      "lstrip": false,
      "rstrip": false,
      "normalized": false,
      "special": true
    },
    {
      "id": 36004,
      "content": "</think>",
      "single_word": false,
      "lstrip": false,
      "rstrip": false,
      "normalized": false,
      "special": true
    }
  ],
  "normalizer": {
    "type": "NFC"
  },
  "pre_tokenizer": {
    "type": "Sequence",
    "pretokenizers": [
      {
        "type": "Split",
        "pattern": {
          "Regex": "(?i:'s|'t|'re|'ve|'m|'ll|'d)|[^\\r\\n\\p{L}\\p{N}]?\\p{L}+|\\p{N}| ?[^\\s\\p{L}\\p{N}]+[\\r\\n]*|\\s*[\\r\\n]+|\\s+(?!\\S)|\\s+"
        },
        "behavior": "Isolated",
        "invert": false
      },
      {
        "type": "ByteLevel",
        "add_prefix_space": false,
        "trim_offsets": true,
        "use_regex": false
      }
    ]
  },
  "post_processor": {
    "type": "ByteLevel",
    "add_prefix_space": false,
    "trim_offsets": false,
    "use_regex": false
  },
  "decoder": {
    "type": "ByteLevel",
    "add_prefix_space": true,
    "trim_offsets": true,
    "use_regex": true
  },
  "model": {
    "type": "BPE",
    "dropout": null,
    "unk_token": null,
    "continuing_subword_prefix": "",
    "end_of_word_suffix": "",
    "fuse_unk": false,
    "byte_fallback": false,
    "ignore_merges": false,
    "vocab": {
      "!": 0,
      "\"": 1,
      "#": 2,
      "$": 3,
      "%": 4,
      "&": 5,
      "'": 6,
      "(": 7,
      ")": 8,
      "*": 9,
      "+": 10,
      ",": 11,
      "-": 12,
      ".": 13,
      "/": 14,
      "0": 15,
      "1": 16,
      "2": 17,
      "3": 18,
      "4": 19,
      "5": 20,
      "6": 21,
      "7": 22,
      "8": 23,
      "9": 24,
      ":": 25,
      ";": 26,
      "<": 27,
      "=": 28,
      ">": 29,
      "?": 30,
      "@": 31,
      "A": 32,
      "B": 33,
      "C": 34,
      "D": 35,
      "E": 36,
      "F": 37,
      "G": 38,
      "H": 39,
      "I": 40,
      "J": 41,
      "K": 42,
      "L": 43,
      "M": 44,
      "N": 45,
      "O": 46,
      "P": 47,
      "Q": 48,
      "R": 49,
      "S": 50,
      "T": 51,
      "U": 52,
      "V": 53,
      "W": 54,
      "X": 55,
      "Y": 56,
      "Z": 57,
      "[": 58,
      "\\": 59,
      "]": 60,
      "^": 61,
      "_": 62,
      "`": 63,
      "a": 64,
      "b": 65,
      "c": 66,
      "d": 67,
      "e": 68,
      "f": 69,
      "g": 70,
      "h": 71,
      "i": 72,
      "j": 73,
      "k": 74,
      "l": 75,
      "m": 76,
      "n": 77,
      "o": 78,
      "p": 79,
      "q": 80,
      "r": 81,
      "s": 82,
      "t": 83,
      "u": 84,
      "v": 85,
      "w": 86,
      "x": 87,
      "y": 88,
      "z": 89,
      "{": 90,
      "|": 91,
      "}": 92,
      "~": 93,
      "¡": 94,
      "¢": 95,
      "£": 96,
      "¤": 97,
      "¥": 98,
      "¦": 99,
      "§": 100,
      "¨": 101,
      "©": 102,
      "ª": 103,
      "«": 104,
      "¬": 105,
      "®": 106,
      "¯": 107,
      "°": 108,
      "±": 109,
      "²": 110,
      "³": 111,
      "´": 112,
      "µ": 113,
      "¶": 114,
      "·": 115,
      "¸": 116,
      "¹": 117,
      "º": 118,
      "»": 119,
      "¼": 120,
      "½": 121,
      "¾": 122,
      "¿": 123,
      "À": 124,
      "Á": 125,
      "Â": 126,
      "Ã": 127,
      "Ä": 128,
      "Å": 129,
      "Æ": 130,
      "Ç": 131,
      "È": 132,
      "É": 133,
      "Ê": 134,
      "Ë": 135,
      "Ì": 136,
      "Í": 137,
      "Î": 138,
      "Ï": 139,
      "Ð": 140,
      "Ñ": 141,
      "Ò": 142,
      "Ó": 143,
      "Ô": 144,
      "Õ": 145,
      "Ö": 146,
      "×": 147,
      "Ø": 148,
      "Ù": 149,
      "Ú": 150,
      "Û": 151,
      "Ü": 152,
      "Ý": 153,
      "Þ": 154,
      "ß": 155,
      "à": 156,
      "á": 157,
      "â": 158,
      "ã": 159,
      "ä": 160,
      "å": 161,
      "æ": 162,
      "ç": 163,
      "è": 164,
      "é": 165,
      "ê": 166,
      "ë": 167,
      "ì": 168,
      "í": 169,
      "î": 170,
      "ï": 171,
      "ð": 172,
      "ñ": 173,
      "ò": 174,
      "ó": 175,
      "ô": 176,
      "õ": 177,
      "ö": 178,
      "÷": 179,
      "ø": 180,
      "ù": 181,
      "ú": 182,
      "û": 183,
      "ü": 184,
      "ý": 185,
      "þ": 186,
      "ÿ": 187,
      "Ā": 188,
      "ā": 189,
      "Ă": 190,
      "ă": 191,
      "Ą": 192,
      "ą": 193,
      "Ć": 194,
      "ć": 195,
      "Ĉ": 196,
      "ĉ": 197,
      "Ċ": 198,
      "ċ": 199,
      "Č": 200,
      "č": 201,
      "Ď": 202,
      "ď": 203,
      "Đ": 204,
      "đ": 205,
      "Ē": 206,
      "ē": 207,
      "Ĕ": 208,
      "ĕ": 209,
      "Ė": 210,
      "ė": 211,
      "Ę": 212,
      "ę": 213,
      "Ě": 214,
      "ě": 215,
      "Ĝ": 216,
      "ĝ": 217,
      "Ğ": 218,
      "ğ": 219,
      "Ġ": 220,
      "ġ": 221,
      "Ģ": 222,
      "ģ": 223,
      "Ĥ": 224,
      "ĥ": 225,
      "Ħ": 226,
      "ħ": 227,
      "Ĩ": 228,
      "ĩ": 229,
      "Ī": 230,
      "ī": 231,
      "Ĭ": 232,
      "ĭ": 233,
      "Į": 234,
      "į": 235,
      "İ": 236,
      "ı": 237,
      "Ĳ": 238,
      "ĳ": 239,
      "Ĵ": 240,
      "ĵ": 241,
      "Ķ": 242,
      "ķ": 243,
      "ĸ": 244,
      "Ĺ": 245,
      "ĺ": 246,
      "Ļ": 247,
      "ļ": 248,
      "Ľ": 249,
      "ľ": 250,
      "Ŀ": 251,
      "ŀ": 252,
      "Ł": 253,
      "ł": 254,
      "Ń": 255,
      "ĠĠ": 256,
      "ĠĠĠĠ": 257,
      "in": 258,
      "Ġt": 259,
      "er": 260,
      "on": 261,
      "Ġa": 262,
      "re": 263,
      "ĠĠĠĠĠĠĠĠ": 264,
      "ä¸": 265,
      "at": 266,
      "he": 267,
      "ĠĠĠ": 268,
      "en": 269,
      "st": 270,
      "or": 271,
      "Ġc": 272,
      "al": 273,
      "Ġthe": 274,
      "çļ": 275,
      "çļĦ": 276,
      "le": 277,
      "se": 278,
      "an": 279,
      "it": 280,
      "ar": 281,
      "ion": 282,
      "de": 283,
      "is": 284,
      "Ġo": 285,
      "Ġf": 286,
      "äº": 287,
      "ct": 288,
      "Ġp": 289,
      "Ġs": 290,
      "ro": 291,
      "ãĢ": 292,
      "ing": 293,
      "es": 294,
      "Ġw": 295,
      "ĊĊ": 296,
      "ï¼": 297,
      "Ġb": 298,
      "ic": 299,
      "Ġin": 300,
      "ed": 301,
      "åı": 302,
      "Ġm": 303,
      "nd": 304,
      "--": 305,
      "åħ": 306,
      "æľ": 307,
      "ent": 308,
      "ĠĠĠĠĠĠĠ": 309,
      "Ġof": 310,
      "Ġ=": 311,
      "ä»": 312,
      "**": 313,
      "ou": 314,
      "ï¼Į": 315,
      "as": 316,
      ";Ċ": 317,
      "åĪ": 318,
      "am": 319,
      "Ġto": 320,
      "å®": 321,
      "et": 322,
      "Ġn": 323,
      "Ġand": 324,
      "Ġre": 325,
      "Ġ(": 326,
      "Ġd": 327,
      "å¤": 328,
      "Ġe": 329,
      "=\"": 330,
      "è¿": 331,
      "ä½": 332,
      "çĶ": 333,
      "lo": 334,
      "om": 335,
      "im": 336,
      "ac": 337,
      "ĠĠĠĠĠĠĠĠĠĠĠĠĠĠĠĠ": 338,
      "ç»": 339,
      "if": 340,
      "ur": 341,
      "åĬ": 342,
      "Ġ\\": 343,
      "ut": 344,
      ",Ċ": 345,
      "åľ": 346,
      "åĲ": 347,
      "ol": 348,
      "ig": 349,
      ">Ċ": 350,
      "Ġth": 351,
      "</": 352,
      "th": 353,
      "Ġh": 354,
      "æĺ": 355,
      "ve": 356,
      "id": 357,
      "il": 358,
      "Ġ*": 359,
      "ãĢģ": 360,
      "æĸ": 361,
      "åĽ": 362,
      "pe": 363,
      "ĉĉ": 364,
      "//": 365,
      "ĠT": 366,
      "ation": 367,
      "ul": 368,
      "un": 369,
      "ãĢĤ": 370,
      ".Ċ": 371,
      "Ġis": 372,
      "æĪ": 373,
      "ä¹": 374,
      "è®": 375,
      "ad": 376,
      "è¯": 377,
      "åŃ": 378,
      "Ġ<": 379,
      "ot": 380,
      "ce": 381,
      "ĠS": 382,
      "um": 383,
      "Ġ\"": 384,
      "ä¼": 385,
      "Ġl": 386,
      "Ġst": 387,
      "Ġ{": 388,
      "ate": 389,
      "----": 390,
      "ĠA": 391,
      "Ġv": 392,
      "ä¸Ģ": 393,
      "âĢ": 394,
      "æĺ¯": 395,
      "ch": 396,
      "ag": 397,
      "ĠC": 398,
      "Ġg": 399,
      ")Ċ": 400,
      "ab": 401,
      "ction": 402,
      "ĠĠĠĠĠĠĠĠĠĠĠ": 403,
      "å¹": 404,
      "åº": 405,
      "ue": 406,
      "Ġfor": 407,
      "==": 408,
      "ly": 409,
      "æķ": 410,
      "ra": 411,
      "ri": 412,
      "ter": 413,
      "Ġcon": 414,
      "æĿ": 415,
      "æĹ": 416,
      ");Ċ": 417,
      "te": 418,
      "Ġde": 419,
      "åľ¨": 420,
      "ass": 421,
      "éĩ": 422,
      "å°": 423,
      "ĠI": 424,
      "åĴ": 425,
      "el": 426,
      "åĮ": 427,
      "ä¸Ń": 428,
      "ine": 429,
      "åĴĮ": 430,
      "ame": 431,
      "åį": 432,
      "å¼": 433,
      "ht": 434,
      "è¡": 435,
      "å¯": 436,
      "Ġu": 437,
      "pt": 438,
      "æľī": 439,
      "æĢ": 440,
      "ver": 441,
      "Ġse": 442,
      "åĨ": 443,
      "äºº": 444,
      "Ġbe": 445,
      "em": 446,
      "ow": 447,
      "èĢ": 448,
      "éĢ": 449,
      "ĠP": 450,
      "ir": 451,
      "æī": 452,
      "ff": 453,
      "lass": 454,
      "çĽ": 455,
      "ist": 456,
      "è§": 457,
      "ith": 458,
      "ss": 459,
      "ä¸º": 460,
      "ype": 461,
      "sp": 462,
      "ä¸į": 463,
      "Ġ-": 464,
      "Ġ{Ċ": 465,
      "æĶ": 466,
      "ay": 467,
      "å·": 468,
      "ĠĠĠĠĠ": 469,
      "urn": 470,
      "åĽ½": 471,
      "å¸": 472,
      "åĩ": 473,
      "),": 474,
      "ode": 475,
      "ĥ½": 476,
      "xt": 477,
      "è´": 478,
      "æĬ": 479,
      "iv": 480,
      "ç§": 481,
      "å¾": 482,
      "od": 483,
      "Ġon": 484,
      "æł": 485,
      "åŃ¦": 486,
      "æ³": 487,
      "å±": 488,
      "int": 489,
      "qu": 490,
      "çİ": 491,
      "\",": 492,
      "Ġ}": 493,
      "****": 494,
      "turn": 495,
      "ers": 496,
      "ĠM": 497,
      "iz": 498,
      "Ġpro": 499,
      "æ°": 500,
      "ap": 501,
      "def": 502,
      "\">": 503,
      "__": 504,
      "ä»¥": 505,
      "Ġthat": 506,
      "us": 507,
      "è¦": 508,
      ":Ċ": 509,
      "çĶŁ": 510,
      "::": 511,
      "op": 512,
      "Ġan": 513,
      "çĶ¨": 514,
      "è¦ģ": 515,
      "åıĳ": 516,
      "äºĨ": 517,
      "ort": 518,
      "Ġy": 519,
      "ment": 520,
      "pl": 521,
      "å¤§": 522,
      "con": 523,
      "Ġclass": 524,
      "ase": 525,
      "çĲ": 526,
      "and": 527,
      "å½": 528,
      "_t": 529,
      "çī": 530,
      "Ġwith": 531,
      "Ġ'": 532,
      "ĠD": 533,
      "()": 534,
      "éĻ": 535,
      "ä¿": 536,
      "ä¸ļ": 537,
      "ĠF": 538,
      "ĠR": 539,
      "æŀ": 540,
      "ĠN": 541,
      "æİ": 542,
      "ult": 543,
      "nt": 544,
      "ĠE": 545,
      "Ġr": 546,
      "èĥ½": 547,
      "éĿ": 548,
      "ke": 549,
      "Ġor": 550,
      "ight": 551,
      "ĠB": 552,
      "Ġal": 553,
      "able": 554,
      "ore": 555,
      "rom": 556,
      "Ġif": 557,
      "èµ": 558,
      "ure": 559,
      "æµ": 560,
      "Ġas": 561,
      "è¡Į": 562,
      "os": 563,
      "ect": 564,
      "end": 565,
      "å¯¹": 566,
      "çŃ": 567,
      "éĹ": 568,
      "æŃ": 569,
      "Ġare": 570,
      "Ġit": 571,
      "unction": 572,
      "AA": 573,
      "Ġex": 574,
      "##": 575,
      "up": 576,
      "lf": 577,
      "çĲĨ": 578,
      "å¿": 579,
      "åŁ": 580,
      "ity": 581,
      "ive": 582,
      "oc": 583,
      "tr": 584,
      "ata": 585,
      "ub": 586,
      "age": 587,
      "ĠThe": 588,
      "Ġwh": 589,
      "str": 590,
      "--------": 591,
      "é¢": 592,
      "çº": 593,
      "ä¸ª": 594,
      "æ³ķ": 595,
      "Ġ\\(": 596,
      "ä½ľ": 597,
      "ä¼ļ": 598,
      "ĠĠĠĠĠĠĠĠĠĠĠĠĠĠĠ": 599,
      "èĩ": 600,
      "art": 601,
      "æĪĲ": 602,
      "ĠL": 603,
      "our": 604,
      "->": 605,
      "æĹ¶": 606,
      "ge": 607,
      "åĮĸ": 608,
      "åİ": 609,
      "ess": 610,
      "Ġ+": 611,
      "ew": 612,
      ";ĊĊ": 613,
      "ere": 614,
      "ack": 615,
      "ant": 616,
      "äºİ": 617,
      "æĮ": 618,
      "åı¯": 619,
      "ä¸Ĭ": 620,
      "Ġ*/": 621,
      "Ġcom": 622,
      "orm": 623,
      "ain": 624,
      "li": 625,
      "ile": 626,
      "æĸ¹": 627,
      "å®ŀ": 628,
      "æĢ§": 629,
      "Ġby": 630,
      "Ġthis": 631,
      "per": 632,
      "port": 633,
      "ĠG": 634,
      "å¹´": 635,
      "åĪĨ": 636,
      "ple": 637,
      "ial": 638,
      "è¿Ļ": 639,
      "åĳ": 640,
      "alue": 641,
      "ĠH": 642,
      "Ġ/": 643,
      "ä½ĵ": 644,
      "ĠW": 645,
      "Ġch": 646,
      "ies": 647,
      "ç¨": 648,
      "ãĢĤĊ": 649,
      "get": 650,
      "åĬ¨": 651,
      "Ġle": 652,
      "è¿Ľ": 653,
      "æ²": 654,
      "å®ļ": 655,
      "..": 656,
      "åĩº": 657,
      "è¾": 658,
      "ä¸İ": 659,
      "ize": 660,
      "åľ°": 661,
      ").": 662,
      "å·¥": 663,
      "Ġ[": 664,
      "äº§": 665,
      "ç®": 666,
      "çİ°": 667,
      "ck": 668,
      "span": 669,
      "ä¾": 670,
      "cl": 671,
      "sc": 672,
      "ĠO": 673,
      "ill": 674,
      "ign": 675,
      "ä¸»": 676,
      "Ġ&": 677,
      "ord": 678,
      "are": 679,
      "all": 680,
      "ç«": 681,
      "ç»ı": 682,
      "define": 683,
      "pro": 684,
      "Ġ|": 685,
      "Ġ*/Ċ": 686,
      "ind": 687,
      "åĪ¶": 688,
      "Ġreturn": 689,
      "com": 690,
      "Ġfrom": 691,
      "æı": 692,
      "ath": 693,
      "In": 694,
      "æĿ¥": 695,
      "Ġ#": 696,
      "this": 697,
      "åĪ°": 698,
      "ER": 699,
      "(\"": 700,
      "ide": 701,
      "one": 702,
      "Ġnot": 703,
      "pre": 704,
      "åĬĽ": 705,
      "IN": 706,
      "Ġat": 707,
      "åĲĪ": 708,
      "Ġcan": 709,
      "ld": 710,
      "\":": 711,
      "set": 712,
      "é«": 713,
      "><": 714,
      "out": 715,
      "_C": 716,
      "#define": 717,
      "è¿ĩ": 718,
      "èĤ": 719,
      "====": 720,
      "é«ĺ": 721,
      "çŃī": 722,
      "_S": 723,
      "åĲĮ": 724,
      "uct": 725,
      "to": 726,
      "æ±": 727,
      "æĸ°": 728,
      "cc": 729,
      "è½": 730,
      "å±ķ": 731,
      "ç½": 732,
      "åħ¨": 733,
      "æľ¬": 734,
      "ans": 735,
      "å»": 736,
      "ç¤": 737,
      "ions": 738,
      "act": 739,
      "åĵ": 740,
      "æ¯": 741,
      "åºĶ": 742,
      "ber": 743,
      "_P": 744,
      "low": 745,
      "ace": 746,
      "ref": 747,
      "ud": 748,
      "ĠU": 749,
      "å¥": 750,
      ".ĊĊ": 751,
      "æĥ": 752,
      "ave": 753,
      "æį": 754,
      "ip": 755,
      "æĭ": 756,
      "Ġhe": 757,
      "åħ³": 758,
      "ical": 759,
      "put": 760,
      "æĦ": 761,
      "ç³": 762,
      "Ġim": 763,
      "est": 764,
      "ject": 765,
      "åº¦": 766,
      "text": 767,
      "ast": 768,
      "********": 769,
      "éĩį": 770,
      "))": 771,
      "èĩª": 772,
      "åħ¶": 773,
      "Ġ//": 774,
      "æķ°": 775,
      "ated": 776,
      "return": 777,
      "æĪĳ": 778,
      "éĺ": 779,
      "å¤ļ": 780,
      "ĠĠĠĠĠĠĠĠĠĠĠĠĠĠĠĠĠĠĠĠĠĠĠĠĠĠĠĠĠĠĠĠ": 781,
      "åī": 782,
      "av": 783,
      "âĢľ": 784,
      "âĢĿ": 785,
      "ef": 786,
      "å¦": 787,
      "å®¶": 788,
      "></": 789,
      "Ġtr": 790,
      "sed": 791,
      "éĿ¢": 792,
      "Ġsh": 793,
      "æķĻ": 794,
      "èĢĮ": 795,
      "_c": 796,
      "å»º": 797,
      "Ġself": 798,
      "ĠĠĠĠĠĠĠĠĠ": 799,
      "ç³»": 800,
      "ime": 801,
      "æĸĩ": 802,
      "_s": 803,
      "_m": 804,
      "æľº": 805,
      "div": 806,
      "Ġwe": 807,
      "],": 808,
      "æıĲ": 809,
      "éĥ": 810,
      "){": 811,
      "function": 812,
      "ire": 813,
      "è®¾": 814,
      "èĢħ": 815,
      "æ°ĳ": 816,
      "ç¨ĭ": 817,
      "ther": 818,
      "ents": 819,
      "ost": 820,
      "ĉĉĉĉ": 821,
      "ä¸ĭ": 822,
      "////": 823,
      "ä¹ĭ": 824,
      "ang": 825,
      "Ġdef": 826,
      "ble": 827,
      "æ´": 828,
      "RE": 829,
      "form": 830,
      "par": 831,
      "çł": 832,
      "FF": 833,
      "å¢": 834,
      "ice": 835,
      "ition": 836,
      "ç¬": 837,
      "åĲİ": 838,
      "éĩı": 839,
      "éĢļ": 840,
      "ak": 841,
      "ence": 842,
      "ON": 843,
      "Ġ}Ċ": 844,
      "æĶ¿": 845,
      "éĥ¨": 846,
      "ç©": 847,
      "çĤ": 848,
      "ary": 849,
      "_M": 850,
      "èµĦ": 851,
      "type": 852,
      "ä»¬": 853,
      "ph": 854,
      "ĠIn": 855,
      "éģ": 856,
      "td": 857,
      "æīĢ": 858,
      "ĠTh": 859,
      "ance": 860,
      "çľ": 861,
      "Ġen": 862,
      "é¡": 863,
      "Ġyou": 864,
      "ext": 865,
      "_f": 866,
      "å¦Ĥ": 867,
      "ard": 868,
      "åĬ¡": 869,
      "ug": 870,
      "å°±": 871,
      "Ġconst": 872,
      "Ġlo": 873,
      "ex": 874,
      "ä¹Ł": 875,
      "çī©": 876,
      "åĢ": 877,
      "ç§į": 878,
      "åŁº": 879,
      "dd": 880,
      "var": 881,
      "ust": 882,
      "ach": 883,
      "ations": 884,
      "åħ¬": 885,
      "ç¡": 886,
      "è°": 887,
      "ps": 888,
      "Ġ</": 889,
      "Ġres": 890,
      "res": 891,
      "åĨħ": 892,
      "åıĳå±ķ": 893,
      "åĬł": 894,
      "æĽ": 895,
      "Ġx": 896,
      "Ġ.": 897,
      "Ġk": 898,
      "AT": 899,
      "å¼Ģ": 900,
      "Ġun": 901,
      "Ġcont": 902,
      "çŁ": 903,
      "EN": 904,
      "ert": 905,
      "},": 906,
      "ft": 907,
      "Ġ/*": 908,
      "ax": 909,
      "åģ": 910,
      "\"Ċ": 911,
      "Ġstr": 912,
      "éķ": 913,
      "ä¿Ŀ": 914,
      "è·": 915,
      "ç®¡": 916,
      "St": 917,
      "name": 918,
      "ite": 919,
      "ST": 920,
      "åıĬ": 921,
      "èģ": 922,
      "fr": 923,
      ".c": 924,
      "æ¬": 925,
      "\\x": 926,
      "æ¸": 927,
      "ont": 928,
      "bo": 929,
      "Ġhave": 930,
      "oid": 931,
      "ich": 932,
      "ml": 933,
      ");": 934,
      "ror": 935,
      "çĽ¸": 936,
      "',": 937,
      "ens": 938,
      "_d": 939,
      "Ġwas": 940,
      "val": 941,
      "ä»£": 942,
      "olor": 943,
      "ild": 944,
      "éļ": 945,
      "}Ċ": 946,
      "åĽł": 947,
      "yp": 948,
      "ould": 949,
      "_p": 950,
      "Ġname": 951,
      "Ġnum": 952,
      "Ġar": 953,
      "å¸Ĥ": 954,
      "bject": 955,
      "ong": 956,
      "æį®": 957,
      "åĿ": 958,
      "ĠV": 959,
      "ator": 960,
      "ll": 961,
      "ç»Ł": 962,
      "éĹ´": 963,
      "ok": 964,
      "äºĭ": 965,
      "ç¤¾": 966,
      "è§Ħ": 967,
      "ount": 968,
      "å¼ı": 969,
      "æĪĸ": 970,
      "ä¿¡": 971,
      "âĢĻ": 972,
      "ĠĠĠĠĠĠĠĠĠĠĠĠĠĠĠĠĠĠĠ": 973,
      "è¶": 974,
      "AR": 975,
      "AL": 976,
      "arg": 977,
      "ption": 978,
      "_D": 979,
      "}ĊĊ": 980,
      "fer": 981,
      "è®¡": 982,
      "ä½¿": 983,
      "Ġne": 984,
      "row": 985,
      "----------------": 986,
      "self": 987,
      "æĬĢ": 988,
      "å½ĵ": 989,
      "Ġ_": 990,
      "OR": 991,
      "ork": 992,
      "und": 993,
      "çĤ¹": 994,
      "rib": 995,
      "The": 996,
      "Ġi": 997,
      "åŃĲ": 998,
      "çķ": 999,
      "ç¬¬": 1000,
      "å¾Ĺ": 1001,
      ")ĊĊ": 1002,
      "åīį": 1003,
      "eng": 1004,
      "çĶµ": 1005,
      "ä»İ": 1006,
      "é¢ĺ": 1007,
      "_b": 1008,
      "åĪ©": 1009,
      "éľ": 1010,
      "æľ¯": 1011,
      "æŁ": 1012,
      "UL": 1013,
      "ä»ĸ": 1014,
      "Ġpl": 1015,
      "_T": 1016,
      "æĻ": 1017,
      "_F": 1018,
      "hen": 1019,
      "ç»ĵ": 1020,
      "ä¸ŃåĽ½": 1021,
      "que": 1022,
      "ull": 1023,
      "ree": 1024,
      "._": 1025,
      "å¿ĥ": 1026,
      "lect": 1027,
      "åħ¥": 1028,
      "èī": 1029,
      "æľŁ": 1030,
      "Ġus": 1031,
      "og": 1032,
      "å¹³": 1033,
      "çĽ®": 1034,
      "å¹¶": 1035,
      "we": 1036,
      "Ġfunction": 1037,
      "æĺİ": 1038,
      "è¡¨": 1039,
      "ry": 1040,
      "ell": 1041,
      "xff": 1042,
      "IC": 1043,
      "Ġint": 1044,
      "è§£": 1045,
      "æ¶": 1046,
      "\">Ċ": 1047,
      "key": 1048,
      "éķ¿": 1049,
      "ç±": 1050,
      "dex": 1051,
      "tern": 1052,
      "ail": 1053,
      ".p": 1054,
      "Ġap": 1055,
      "ude": 1056,
      "\\u": 1057,
      "çłĶ": 1058,
      "pec": 1059,
      "Ġtype": 1060,
      "æģ": 1061,
      "ç¾": 1062,
      "ory": 1063,
      "Ġ@": 1064,
      ".m": 1065,
      "åĮº": 1066,
      "ç´": 1067,
      "Ġwhich": 1068,
      "ses": 1069,
      "æ°´": 1070,
      "oint": 1071,
      "Ġ==": 1072,
      "å°Ĩ": 1073,
      "so": 1074,
      "lock": 1075,
      "çī¹": 1076,
      "åĵģ": 1077,
      "éĽ": 1078,
      "Ġ`": 1079,
      "own": 1080,
      "æłĩ": 1081,
      "ual": 1082,
      ":**": 1083,
      "line": 1084,
      "æĦı": 1085,
      "ec": 1086,
      "Ġhref": 1087,
      "ink": 1088,
      "æľĢ": 1089,
      "å¤ĸ": 1090,
      "\",Ċ": 1091,
      "}{": 1092,
      "Ġvalue": 1093,
      "ç§ĳ": 1094,
      "Ġout": 1095,
      "çĦ": 1096,
      "æĿĥ": 1097,
      "ia": 1098,
      "les": 1099,
      ":\"": 1100,
      "atic": 1101,
      "é£": 1102,
      "Ġdata": 1103,
      "'s": 1104,
      "Ġbo": 1105,
      "IT": 1106,
      "ä¸ī": 1107,
      "add": 1108,
      "æº": 1109,
      "æĽ´": 1110,
      "ray": 1111,
      "&&": 1112,
      "log": 1113,
      "ç¤¾ä¼ļ": 1114,
      "è´¨": 1115,
      "ä¹ī": 1116,
      "eth": 1117,
      "Ġwill": 1118,
      "Ġvar": 1119,
      "(t": 1120,
      "ength": 1121,
      ".s": 1122,
      "Ġj": 1123,
      "ä»¶": 1124,
      "\",\"": 1125,
      "vent": 1126,
      "çĿ": 1127,
      "ample": 1128,
      "Ġper": 1129,
      "ous": 1130,
      "AN": 1131,
      "Ġsc": 1132,
      "(e": 1133,
      "ID": 1134,
      "enc": 1135,
      "å¼º": 1136,
      "AS": 1137,
      "../": 1138,
      "-c": 1139,
      "åŀ": 1140,
      "frac": 1141,
      "éĹ®": 1142,
      "Ġab": 1143,
      "Ġpre": 1144,
      "ä¸Ģä¸ª": 1145,
      "Ġdo": 1146,
      "):Ċ": 1147,
      "AC": 1148,
      "åı¯ä»¥": 1149,
      "æŀĦ": 1150,
      "io": 1151,
      "LE": 1152,
      "ä½į": 1153,
      "roup": 1154,
      "Ġ**": 1155,
      "ep": 1156,
      "ange": 1157,
      "),Ċ": 1158,
      "Ġ>": 1159,
      "åıĺ": 1160,
      "æ²»": 1161,
      "å°ı": 1162,
      "ĉĉĉ": 1163,
      "Ġ:": 1164,
      "-b": 1165,
      ");ĊĊ": 1166,
      "du": 1167,
      "çĹ": 1168,
      "ĠĠĠĠĠĠ": 1169,
      "ç¼": 1170,
      "ound": 1171,
      "çĸ": 1172,
      "over": 1173,
      "Ġ$": 1174,
      "æŃ¤": 1175,
      "-s": 1176,
      "çĶ±": 1177,
      "struct": 1178,
      "å½¢": 1179,
      "ç«ĭ": 1180,
      "ms": 1181,
      "éľĢ": 1182,
      "Ġhas": 1183,
      "å¯¼": 1184,
      "ome": 1185,
      "ater": 1186,
      "æŀľ": 1187,
      "gr": 1188,
      "åľº": 1189,
      "Ġme": 1190,
      "æĥħ": 1191,
      "px": 1192,
      "ä¼ģ": 1193,
      "ault": 1194,
      "\"><": 1195,
      "/*": 1196,
      "ç½ĳ": 1197,
      "clude": 1198,
      "ix": 1199,
      "æ±Ĥ": 1200,
      "://": 1201,
      "ib": 1202,
      "Ġ,": 1203,
      "Ġdis": 1204,
      "fo": 1205,
      "Ġel": 1206,
      "æķĪ": 1207,
      "èĤ²": 1208,
      "_in": 1209,
      "use": 1210,
      "å¥½": 1211,
      "ĠJ": 1212,
      "ĠThis": 1213,
      "Ġ\\)": 1214,
      "ç»Ħ": 1215,
      "èĬ": 1216,
      "Ġro": 1217,
      "æµİ": 1218,
      "ener": 1219,
      "iel": 1220,
      "ç©¶": 1221,
      "Ġsy": 1222,
      "Ġtheir": 1223,
      "Ġ__": 1224,
      "tt": 1225,
      "æ´»": 1226,
      "éĥ½": 1227,
      "fig": 1228,
      "æ¡": 1229,
      "æĹ¥": 1230,
      "åħ·": 1231,
      "çĦ¶": 1232,
      "èĥ": 1233,
      "Ġuse": 1234,
      "{Ċ": 1235,
      "åĲĳ": 1236,
      "lement": 1237,
      "éĩĳ": 1238,
      "ribut": 1239,
      "å®ī": 1240,
      "========": 1241,
      "Type": 1242,
      "è®º": 1243,
      "ates": 1244,
      "nder": 1245,
      "æĮģ": 1246,
      "éĶ": 1247,
      "æŃ£": 1248,
      "Re": 1249,
      "äºĽ": 1250,
      "ield": 1251,
      "Ġid": 1252,
      "ç»ıæµİ": 1253,
      "ä¼ģä¸ļ": 1254,
      "atch": 1255,
      "cont": 1256,
      "äºĮ": 1257,
      "html": 1258,
      "ç±»": 1259,
      "åĲĦ": 1260,
      "ake": 1261,
      "ature": 1262,
      "å§": 1263,
      "åĳĺ": 1264,
      "è¿Ľè¡Į": 1265,
      "åħ±": 1266,
      "ific": 1267,
      "Ġall": 1268,
      "idth": 1269,
      "è¯´": 1270,
      "æºĲ": 1271,
      "åİŁ": 1272,
      "ick": 1273,
      "éª": 1274,
      "èĲ": 1275,
      "ear": 1276,
      "_n": 1277,
      "æĹł": 1278,
      "Ġsu": 1279,
      "ource": 1280,
      "å¸¸": 1281,
      "odel": 1282,
      "stem": 1283,
      "ç²": 1284,
      "æ·": 1285,
      ".d": 1286,
      "åŀĭ": 1287,
      "``": 1288,
      "]Ċ": 1289,
      "æ¯Ķ": 1290,
      "ise": 1291,
      "æİ¥": 1292,
      "ded": 1293,
      "åĪĽ": 1294,
      "ä½Ĩ": 1295,
      "éħ": 1296,
      "_l": 1297,
      ".f": 1298,
      "alse": 1299,
      "ative": 1300,
      "å¢ŀ": 1301,
      "ues": 1302,
      "Ġone": 1303,
      "æĬĢæľ¯": 1304,
      "çłĶç©¶": 1305,
      "æĶ¹": 1306,
      "Ġmore": 1307,
      "round": 1308,
      "Pro": 1309,
      "of": 1310,
      "æĮĩ": 1311,
      "Ġnew": 1312,
      "param": 1313,
      "æ¨": 1314,
      "SE": 1315,
      "vi": 1316,
      "Ġass": 1317,
      "å·¥ä½ľ": 1318,
      "æµģ": 1319,
      "irst": 1320,
      "çĻ": 1321,
      ".l": 1322,
      "value": 1323,
      "ser": 1324,
      "AAAA": 1325,
      "Ġbut": 1326,
      "Ġ!": 1327,
      "è°ĥ": 1328,
      "Ġthey": 1329,
      "ï¼ļ": 1330,
      "ä¼ł": 1331,
      "ç®¡çĲĨ": 1332,
      "pert": 1333,
      "Ġstud": 1334,
      ".h": 1335,
      "è¿ĺ": 1336,
      "èµ·": 1337,
      "ç¡®": 1338,
      "led": 1339,
      "htt": 1340,
      "ask": 1341,
      "å¤Ħ": 1342,
      "pr": 1343,
      "****************": 1344,
      "Ġso": 1345,
      "éĹ®é¢ĺ": 1346,
      "ä»»": 1347,
      "éģĵ": 1348,
      "ĠĠĊ": 1349,
      "Ġwere": 1350,
      "its": 1351,
      "ark": 1352,
      "////////": 1353,
      "igh": 1354,
      "ys": 1355,
      "è®¤": 1356,
      "Ġinter": 1357,
      "æĪĳä»¬": 1358,
      "old": 1359,
      "_B": 1360,
      "è¢": 1361,
      "Con": 1362,
      "è¯Ĩ": 1363,
      "çŁ¥": 1364,
      "AD": 1365,
      "ings": 1366,
      "ãĢĬ": 1367,
      "ãĢĭ": 1368,
      "éĢł": 1369,
      "åħļ": 1370,
      "æĿ¡": 1371,
      "Ġother": 1372,
      "ä»·": 1373,
      "ĠĊ": 1374,
      "right": 1375,
      "Ġdif": 1376,
      "Ġpart": 1377,
      "cre": 1378,
      "éĵ": 1379,
      "ĠK": 1380,
      "Ġ}ĊĊ": 1381,
      "æľį": 1382,
      "è¿Ĳ": 1383,
      "vel": 1384,
      "äº¤": 1385,
      "æ¨¡": 1386,
      "PI": 1387,
      "code": 1388,
      "çĿĢ": 1389,
      "Ġform": 1390,
      "pect": 1391,
      "string": 1392,
      "yle": 1393,
      "_re": 1394,
      "âĢĻs": 1395,
      "æĢĿ": 1396,
      "IM": 1397,
      "loc": 1398,
      "ä¹ł": 1399,
      "cess": 1400,
      "ethod": 1401,
      "('": 1402,
      "ï¼ī": 1403,
      "æģ¯": 1404,
      "Ġup": 1405,
      "wo": 1406,
      "ĠSt": 1407,
      "Ġnumber": 1408,
      "urre": 1409,
      "è¯ģ": 1410,
      "]ĊĊ": 1411,
      "mo": 1412,
      "çİ¯": 1413,
      "EC": 1414,
      "quest": 1415,
      ".get": 1416,
      "||": 1417,
      "åķ": 1418,
      "Ġyour": 1419,
      "TR": 1420,
      "ng": 1421,
      ".html": 1422,
      "åĽ½å®¶": 1423,
      "ose": 1424,
      "min": 1425,
      "åįķ": 1426,
      "åĻ": 1427,
      "æ®": 1428,
      "ï¼Ī": 1429,
      "æİ¨": 1430,
      "æ¬¡": 1431,
      "(Ċ": 1432,
      "heck": 1433,
      "ç¥": 1434,
      "ne": 1435,
      "Ġresult": 1436,
      "æľĪ": 1437,
      "èĭ": 1438,
      "é¡¹": 1439,
      "order": 1440,
      "ress": 1441,
      ",\"": 1442,
      "const": 1443,
      "rit": 1444,
      ")}": 1445,
      "arch": 1446,
      "èį": 1447,
      "æĶ¶": 1448,
      "AB": 1449,
      "Ġget": 1450,
      "ript": 1451,
      "void": 1452,
      ".com": 1453,
      "\"/": 1454,
      "åįģ": 1455,
      "tem": 1456,
      "app": 1457,
      "af": 1458,
      "ä¸ĵ": 1459,
      ">>": 1460,
      "_st": 1461,
      "Th": 1462,
      "åĨ³": 1463,
      "ĠRe": 1464,
      "è¢«": 1465,
      "Name": 1466,
      "Ġman": 1467,
      "rc": 1468,
      "Ġalso": 1469,
      "Ġtime": 1470,
      "ors": 1471,
      "(n": 1472,
      "è½¬": 1473,
      "ĠĠĠĠĠĠĠĠĠĠĠĠĠ": 1474,
      "\\)": 1475,
      "ä¾Ľ": 1476,
      "éĢļè¿ĩ": 1477,
      "æł·": 1478,
      "åĩĨ": 1479,
      "ery": 1480,
      "åŃĺ": 1481,
      "Ġelse": 1482,
      "æķĻèĤ²": 1483,
      "vice": 1484,
      "Ġcomp": 1485,
      "ç¾İ": 1486,
      "Ġad": 1487,
      "Ġval": 1488,
      "èĢĥ": 1489,
      "åĻ¨": 1490,
      "Ġtyp": 1491,
      "èĪ": 1492,
      "ied": 1493,
      "æĸ½": 1494,
      "ma": 1495,
      "ename": 1496,
      "Ġset": 1497,
      "error": 1498,
      "();Ċ": 1499,
      "åĪĻ": 1500,
      "Ġused": 1501,
      "Ġwhen": 1502,
      "Ġpr": 1503,
      "Ġspec": 1504,
      "åıĸ": 1505,
      "å¤©": 1506,
      "ating": 1507,
      "åŃ¦çĶŁ": 1508,
      "ined": 1509,
      "éĴ": 1510,
      "æĢģ": 1511,
      "ĉif": 1512,
      "ient": 1513,
      "AM": 1514,
      "back": 1515,
      "åķĨ": 1516,
      "uff": 1517,
      "qual": 1518,
      ":ĊĊ": 1519,
      "Ġreg": 1520,
      "é¢Ĩ": 1521,
      "yn": 1522,
      "çĥ": 1523,
      "æķ°æį®": 1524,
      "Ġ<<": 1525,
      "Ġpar": 1526,
      "ED": 1527,
      "åĨľ": 1528,
      "èĦ": 1529,
      "åıĹ": 1530,
      "Ġadd": 1531,
      "vers": 1532,
      "èģĶ": 1533,
      "çº§": 1534,
      "ä¸¤": 1535,
      "imes": 1536,
      "çİĩ": 1537,
      "Ġunder": 1538,
      "Ġcomm": 1539,
      "Ch": 1540,
      "èĮ": 1541,
      "ç³»ç»Ł": 1542,
      "ca": 1543,
      "è§Ĥ": 1544,
      "åı¸": 1545,
      "Ġsub": 1546,
      "éĻ¢": 1547,
      "ces": 1548,
      "Ġimport": 1549,
      "Ġli": 1550,
      "}.": 1551,
      "].": 1552,
      "_L": 1553,
      "ics": 1554,
      "-t": 1555,
      "(self": 1556,
      "sk": 1557,
      "read": 1558,
      "Ġbet": 1559,
      "Ġinto": 1560,
      "Ġdiffer": 1561,
      "è·¯": 1562,
      "æĥ³": 1563,
      "Ġmay": 1564,
      "åħĥ": 1565,
      "ĠĠĠĠĠĠĠĠĠĠĠĠĠĠĠĠĠĠĠĠĠĠĠ": 1566,
      "çº¿": 1567,
      "###": 1568,
      "çĹħ": 1569,
      "Ĥ£": 1570,
      "å®¹": 1571,
      "Ġcal": 1572,
      "rror": 1573,
      "Ġtest": 1574,
      "åĢ¼": 1575,
      "Ġno": 1576,
      "Ġwork": 1577,
      "å£": 1578,
      "è£": 1579,
      "å¢ĥ": 1580,
      "arn": 1581,
      "Ġcol": 1582,
      "Ġchar": 1583,
      "ann": 1584,
      "æĢ»": 1585,
      "ular": 1586,
      "\\[": 1587,
      "IS": 1588,
      "å·²": 1589,
      "urrent": 1590,
      "å®Į": 1591,
      "ule": 1592,
      "å¸Ī": 1593,
      "test": 1594,
      "ES": 1595,
      "ved": 1596,
      "è¾ĥ": 1597,
      "py": 1598,
      "å¾Ī": 1599,
      "Ġover": 1600,
      "xFF": 1601,
      "çĬ": 1602,
      "_R": 1603,
      "éĽĨ": 1604,
      "itle": 1605,
      "éªĮ": 1606,
      "Ġcl": 1607,
      "plic": 1608,
      "_>Ċ": 1609,
      "ç¦": 1610,
      "_id": 1611,
      "left": 1612,
      "((": 1613,
      "Ġthan": 1614,
      "æľįåĬ¡": 1615,
      "Ex": 1616,
      "éĻħ": 1617,
      "æŃ¥": 1618,
      "OD": 1619,
      "æĶ¾": 1620,
      "ob": 1621,
      "æķ´": 1622,
      "çģ": 1623,
      "âĢĶ": 1624,
      "Ġsp": 1625,
      "å»ºè®¾": 1626,
      "é£İ": 1627,
      "ä¿¡æģ¯": 1628,
      "ility": 1629,
      "ĠY": 1630,
      "xf": 1631,
      "ish": 1632,
      "æĪĺ": 1633,
      "èī²": 1634,
      "ĠNone": 1635,
      "_N": 1636,
      "ays": 1637,
      "ĠIt": 1638,
      "Ġabout": 1639,
      "sign": 1640,
      "ym": 1641,
      "ä¸ĸ": 1642,
      "cept": 1643,
      "reak": 1644,
      "++": 1645,
      "osition": 1646,
      "ç¤º": 1647,
      "Ġthese": 1648,
      "press": 1649,
      "Ġsup": 1650,
      "çľĭ": 1651,
      ".n": 1652,
      "åıį": 1653,
      "abel": 1654,
      ".t": 1655,
      "ä¹¦": 1656,
      "æ°Ķ": 1657,
      "Ġrel": 1658,
      "ET": 1659,
      "èĬĤ": 1660,
      "hed": 1661,
      "Ġtwo": 1662,
      "æ¡Ī": 1663,
      "data": 1664,
      "æµĭ": 1665,
      "ons": 1666,
      ",-": 1667,
      "æĶ¯": 1668,
      "æĦŁ": 1669,
      "Ġany": 1670,
      "](": 1671,
      "åĪ«": 1672,
      "\"\"": 1673,
      "Ġact": 1674,
      "æł¼": 1675,
      ".b": 1676,
      "ç´ł": 1677,
      "ible": 1678,
      "Ġhow": 1679,
      "å¤į": 1680,
      "Id": 1681,
      "è¾¾": 1682,
      "åĸ": 1683,
      "ader": 1684,
      "åĮħ": 1685,
      "EX": 1686,
      "åħĪ": 1687,
      "å¿ħ": 1688,
      "for": 1689,
      "_O": 1690,
      "å¤ĩ": 1691,
      "sh": 1692,
      "ument": 1693,
      "å½±": 1694,
      "æĬ¤": 1695,
      "reate": 1696,
      "olut": 1697,
      "ffect": 1698,
      "quire": 1699,
      "ract": 1700,
      "åĽ¾": 1701,
      "TI": 1702,
      "!<": 1703,
      "arget": 1704,
      "Ġits": 1705,
      "Ġte": 1706,
      "import": 1707,
      "iss": 1708,
      "pp": 1709,
      "ww": 1710,
      "essage": 1711,
      "CC": 1712,
      "é¦": 1713,
      "é©": 1714,
      "ool": 1715,
      "éĩįè¦ģ": 1716,
      "éľĢè¦ģ": 1717,
      "éĹ¨": 1718,
      "åģļ": 1719,
      "Ġsize": 1720,
      "è¯¥": 1721,
      "æ£": 1722,
      "Ġcase": 1723,
      "Ag": 1724,
      "IG": 1725,
      "çķĮ": 1726,
      "ä½¿çĶ¨": 1727,
      "ubl": 1728,
      "Ar": 1729,
      "å¼ķ": 1730,
      "åĲį": 1731,
      "ie": 1732,
      "loat": 1733,
      "Ġ/*!<": 1734,
      "å¸Ĥåľº": 1735,
      "\"/>Ċ": 1736,
      "èº": 1737,
      "æĬ¥": 1738,
      "br": 1739,
      "å®ĥ": 1740,
      "class": 1741,
      "_H": 1742,
      "Ġusing": 1743,
      "ale": 1744,
      "å°ĳ": 1745,
      "_w": 1746,
      "raph": 1747,
      "Ġ%": 1748,
      "æ³¨": 1749,
      "',Ċ": 1750,
      "æł¹": 1751,
      "ctions": 1752,
      "ĠĠĠĠĠĠĠĠĠĠĠĠ": 1753,
      "åŁŁ": 1754,
      "å¾ĭ": 1755,
      "':": 1756,
      "Str": 1757,
      "æ²¡": 1758,
      "aw": 1759,
      "-f": 1760,
      "èĻ": 1761,
      "ä½İ": 1762,
      "ï¼Ľ": 1763,
      "inal": 1764,
      "è¯¾": 1765,
      "ç®Ĺ": 1766,
      "Ġthem": 1767,
      "ĠPro": 1768,
      "ä¹Ī": 1769,
      "ames": 1770,
      "æİ§": 1771,
      "AP": 1772,
      "éĢī": 1773,
      "ify": 1774,
      "Ġvoid": 1775,
      "Ġev": 1776,
      "_de": 1777,
      "ĠEx": 1778,
      "ian": 1779,
      "mp": 1780,
      "ä¼ĺ": 1781,
      "ict": 1782,
      "ä¸»è¦ģ": 1783,
      "äººæ°ĳ": 1784,
      "Ġthere": 1785,
      "Ġ&&": 1786,
      "-l": 1787,
      "Ġonly": 1788,
      "ween": 1789,
      "æ·±": 1790,
      "èĩ³": 1791,
      "åı£": 1792,
      "ĠCh": 1793,
      "Ġprov": 1794,
      "item": 1795,
      "éĿ©": 1796,
      "Ġacc": 1797,
      "Ġstruct": 1798,
      "éĿŀ": 1799,
      "æĸĻ": 1800,
      "ton": 1801,
      "æł¡": 1802,
      "èŀ": 1803,
      "èº«": 1804,
      "çŃĸ": 1805,
      "æĸŃ": 1806,
      "UN": 1807,
      "ä¾ĭ": 1808,
      "ptions": 1809,
      "):": 1810,
      "RO": 1811,
      "(a": 1812,
      "è±": 1813,
      "ternal": 1814,
      "ĠQ": 1815,
      "Ġdist": 1816,
      "Ġfirst": 1817,
      "æīĭ": 1818,
      "åĽĽ": 1819,
      "åıª": 1820,
      "åı²": 1821,
      "-m": 1822,
      "hem": 1823,
      "æ»": 1824,
      "Ġ)": 1825,
      "åŁİ": 1826,
      "åŃĹ": 1827,
      "ns": 1828,
      "js": 1829,
      "ood": 1830,
      "Ġqu": 1831,
      "UT": 1832,
      "ages": 1833,
      "rite": 1834,
      "'Ċ": 1835,
      "ä¸»ä¹ī": 1836,
      "åĬŁ": 1837,
      "ç²¾": 1838,
      "Data": 1839,
      "arent": 1840,
      "https": 1841,
      "è®°": 1842,
      "Tr": 1843,
      "####": 1844,
      "è´¹": 1845,
      "æĺĵ": 1846,
      "åħ»": 1847,
      "ugh": 1848,
      "Ġfile": 1849,
      "èĮĥ": 1850,
      "ĠIf": 1851,
      "play": 1852,
      "åĵį": 1853,
      "rol": 1854,
      "Ġser": 1855,
      "lag": 1856,
      "ody": 1857,
      "Error": 1858,
      "opy": 1859,
      "è®®": 1860,
      "Ġtrans": 1861,
      "uc": 1862,
      "Node": 1863,
      "include": 1864,
      "ities": 1865,
      "å®īåħ¨": 1866,
      "æĬķ": 1867,
      "ole": 1868,
      "æŁ¥": 1869,
      "æīį": 1870,
      "Ġline": 1871,
      "atus": 1872,
      "è¿ĳ": 1873,
      "è¯ķ": 1874,
      "../../": 1875,
      "ULL": 1876,
      "static": 1877,
      "åİĨ": 1878,
      "Ġsuch": 1879,
      "éĻ©": 1880,
      "Ġkn": 1881,
      "ger": 1882,
      "çĽ´": 1883,
      "åħ¬åı¸": 1884,
      "æĸ¹éĿ¢": 1885,
      "Ġeach": 1886,
      "cond": 1887,
      "Com": 1888,
      "lp": 1889,
      "Ġz": 1890,
      "als": 1891,
      "ground": 1892,
      "ins": 1893,
      "ä½ķ": 1894,
      "}}": 1895,
      "_G": 1896,
      "ments": 1897,
      "(s": 1898,
      "Ġend": 1899,
      "ense": 1900,
      "èŀį": 1901,
      "Ġbetween": 1902,
      "çĽĬ": 1903,
      "èĲ¥": 1904,
      "æĬĬ": 1905,
      "indow": 1906,
      "Ġsim": 1907,
      "Ġvari": 1908,
      "uffer": 1909,
      "_IN": 1910,
      "_h": 1911,
      "()Ċ": 1912,
      "ash": 1913,
      "å±Ĥ": 1914,
      "Ġsome": 1915,
      "è¥": 1916,
      "ts": 1917,
      "éĩĮ": 1918,
      "(),": 1919,
      "der": 1920,
      "cul": 1921,
      "åıĤ": 1922,
      "Ġpoint": 1923,
      "åĨµ": 1924,
      "è´£": 1925,
      "hes": 1926,
      "inter": 1927,
      "ç©º": 1928,
      "ci": 1929,
      "ç½®": 1930,
      "(x": 1931,
      "æµ·": 1932,
      "Ġac": 1933,
      ".re": 1934,
      ".g": 1935,
      "[\"": 1936,
      "èĥ½åĬĽ": 1937,
      "å®ŀçİ°": 1938,
      "ĠUn": 1939,
      "ider": 1940,
      "Ġshould": 1941,
      "Ġlike": 1942,
      "ollow": 1943,
      "è¥¿": 1944,
      "æľª": 1945,
      "è§Ĩ": 1946,
      "Ġma": 1947,
      "Ġsign": 1948,
      "\\\"": 1949,
      "è¯Ń": 1950,
      "Se": 1951,
      "Ġ--": 1952,
      "_r": 1953,
      "cent": 1954,
      "Ġco": 1955,
      "ased": 1956,
      "æ¶Ī": 1957,
      "AG": 1958,
      "olum": 1959,
      "perty": 1960,
      "æŀĲ": 1961,
      "Ġag": 1962,
      "be": 1963,
      "search": 1964,
      "(f": 1965,
      "åİ»": 1966,
      "è¿ĩç¨ĭ": 1967,
      ".</": 1968,
      "Value": 1969,
      "Ġsystem": 1970,
      "ç»´": 1971,
      "===": 1972,
      "æ®µ": 1973,
      "æĸ¹æ³ķ": 1974,
      "Ġbeen": 1975,
      "rough": 1976,
      "éĺ²": 1977,
      "èģĮ": 1978,
      "éĢŁ": 1979,
      "ç»Ļ": 1980,
      "åĮ»": 1981,
      "ç»ĩ": 1982,
      "ä¸ľ": 1983,
      "ock": 1984,
      "å¸¦": 1985,
      "Ġmat": 1986,
      "not": 1987,
      "æĸĩåĮĸ": 1988,
      "Ġph": 1989,
      "æ²¡æľī": 1990,
      "éĩĩ": 1991,
      "Ġdifferent": 1992,
      "_Pos": 1993,
      "è¯Ħ": 1994,
      "Ġcell": 1995,
      "Ġcons": 1996,
      "æŀģ": 1997,
      "_RE": 1998,
      "ä¸ŃçļĦ": 1999,
      "çħ": 2000,
      "çĽĳ": 2001,
      "ĠâĢľ": 2002,
      "æ¯ı": 2003,
      "çİ¯å¢ĥ": 2004,
      "åŃ¦ä¹ł": 2005,
      "att": 2006,
      "ren": 2007,
      "\\n": 2008,
      "Ġfe": 2009,
      "))Ċ": 2010,
      "Ġob": 2011,
      "Ġpe": 2012,
      "CR": 2013,
      "fter": 2014,
      "Ġlet": 2015,
      "å½±åĵį": 2016,
      "-d": 2017,
      "åŁºç¡": 2018,
      "Ġarg": 2019,
      "æĺ¾": 2020,
      "åŁºç¡Ģ": 2021,
      "no": 2022,
      "è½¦": 2023,
      ".st": 2024,
      "Ġ||": 2025,
      "raw": 2026,
      "off": 2027,
      "trans": 2028,
      "Ġhigh": 2029,
      "Ġext": 2030,
      "ĠFor": 2031,
      "åį³": 2032,
      "åĪĴ": 2033,
      "å¹¿": 2034,
      "(this": 2035,
      "è±¡": 2036,
      "çĶŁäº§": 2037,
      "Ġneed": 2038,
      "Ġ},Ċ": 2039,
      "IF": 2040,
      "],Ċ": 2041,
      "å·±": 2042,
      "ç»Ń": 2043,
      "åįĩ": 2044,
      "--------------------------------": 2045,
      "æĪ·": 2046,
      "xF": 2047,
      "To": 2048,
      "(c": 2049,
      "Ġ*Ċ": 2050,
      "**Ċ": 2051,
      "ä¾Ŀ": 2052,
      "åĳ½": 2053,
      "ä¸įåĲĮ": 2054,
      "velo": 2055,
      "åı°": 2056,
      "Object": 2057,
      "red": 2058,
      "ush": 2059,
      ",t": 2060,
      "pon": 2061,
      "æł¸": 2062,
      "-p": 2063,
      "stance": 2064,
      "\"></": 2065,
      "OL": 2066,
      ".length": 2067,
      "box": 2068,
      "view": 2069,
      "reat": 2070,
      "Ġkey": 2071,
      "_type": 2072,
      "ç»Ĩ": 2073,
      "ĉreturn": 2074,
      "ices": 2075,
      "ĠĠĠĠĠĠĠĠĠĠ": 2076,
      "her": 2077,
      "oug": 2078,
      "Ġaut": 2079,
      "è¦ģæ±Ĥ": 2080,
      ",n": 2081,
      "åı¯èĥ½": 2082,
      ".\"": 2083,
      "org": 2084,
      "eter": 2085,
      "ĠCon": 2086,
      "ced": 2087,
      "ream": 2088,
      "è®©": 2089,
      "]=": 2090,
      "(p": 2091,
      "uf": 2092,
      "Ġfind": 2093,
      "_V": 2094,
      "ç¥ŀ": 2095,
      "æ¸ħ": 2096,
      "èĩ´": 2097,
      "Ġobject": 2098,
      ".w": 2099,
      "\":\"": 2100,
      "Ġwhere": 2101,
      "Ġpo": 2102,
      "åºľ": 2103,
      "ines": 2104,
      "face": 2105,
      "Ġequ": 2106,
      "åħī": 2107,
      "ç§¯": 2108,
      "æıĲä¾Ľ": 2109,
      "Ġem": 2110,
      "Ġyear": 2111,
      "pres": 2112,
      "å°±æĺ¯": 2113,
      "ç»Ħç»ĩ": 2114,
      "bers": 2115,
      "æĿĳ": 2116,
      "è§ģ": 2117,
      "#include": 2118,
      "Ġthen": 2119,
      "US": 2120,
      "ä¸ĩ": 2121,
      "èİ": 2122,
      "å±Ģ": 2123,
      "åĽŀ": 2124,
      "='": 2125,
      "spon": 2126,
      "Ġchild": 2127,
      "ctor": 2128,
      "Ġstart": 2129,
      "é¢Ħ": 2130,
      "umber": 2131,
      "å¸ĥ": 2132,
      "(){": 2133,
      "uild": 2134,
      "ized": 2135,
      "String": 2136,
      "date": 2137,
      "èĩªå·±": 2138,
      "uint": 2139,
      "çº¦": 2140,
      "Ġfollow": 2141,
      "æ£Ģ": 2142,
      ",e": 2143,
      "load": 2144,
      "éħį": 2145,
      "group": 2146,
      "));Ċ": 2147,
      "rap": 2148,
      "eb": 2149,
      "Ġwould": 2150,
      "ner": 2151,
      "éĻĲ": 2152,
      "éĢĤ": 2153,
      "ilter": 2154,
      "rect": 2155,
      "ublic": 2156,
      "Ġam": 2157,
      "ui": 2158,
      "Ġtrue": 2159,
      "çĬ¶": 2160,
      "Sc": 2161,
      "Ġback": 2162,
      "Ġ->": 2163,
      "signed": 2164,
      "Ġve": 2165,
      "default": 2166,
      "åįı": 2167,
      "åĬ¿": 2168,
      "ister": 2169,
      "rain": 2170,
      "ĠCom": 2171,
      "ower": 2172,
      "Ġassert": 2173,
      "ulti": 2174,
      "Ġlist": 2175,
      "åħ·æľī": 2176,
      "Ġgiv": 2177,
      "ational": 2178,
      "Ġthrough": 2179,
      "iter": 2180,
      ",åľ¨": 2181,
      "åĪĨæŀĲ": 2182,
      "MP": 2183,
      "ier": 2184,
      "ape": 2185,
      ")(": 2186,
      "Ġexample": 2187,
      "_e": 2188,
      "Ġmethod": 2189,
      "éļ¾": 2190,
      "Ġdi": 2191,
      "Ġgener": 2192,
      "Ġcor": 2193,
      "éĻ¤": 2194,
      "ĠâĢ": 2195,
      "Res": 2196,
      "irc": 2197,
      "åŁ¹": 2198,
      "mem": 2199,
      "OC": 2200,
      "è¨": 2201,
      "ern": 2202,
      "=n": 2203,
      "Ġop": 2204,
      "çª": 2205,
      "æĸ¹å¼ı": 2206,
      "Ġinf": 2207,
      "Ġoff": 2208,
      "rt": 2209,
      "[i": 2210,
      "List": 2211,
      "(&": 2212,
      "-w": 2213,
      "cd": 2214,
      "?Ċ": 2215,
      "æĶ¿åºľ": 2216,
      "äºĴ": 2217,
      "Ġmod": 2218,
      "Ġpat": 2219,
      "velop": 2220,
      "ta": 2221,
      "äºĶ": 2222,
      "ful": 2223,
      "Ġour": 2224,
      "uring": 2225,
      "æĪĳåĽ½": 2226,
      "æĹ¶éĹ´": 2227,
      "_A": 2228,
      "åĬ©": 2229,
      "case": 2230,
      "åºĶçĶ¨": 2231,
      "ä½ł": 2232,
      "åĪ¶åº¦": 2233,
      ".pro": 2234,
      "èĢģ": 2235,
      "pend": 2236,
      "Ġmo": 2237,
      "Ġprovide": 2238,
      "çľŁ": 2239,
      "Ġmin": 2240,
      "åĳĬ": 2241,
      "äºī": 2242,
      "Ġtypename": 2243,
      "Ġlong": 2244,
      "PE": 2245,
      "(b": 2246,
      "\\\\": 2247,
      "Ġstate": 2248,
      "çĪ": 2249,
      "ç§ĳåŃ¦": 2250,
      "fore": 2251,
      "å¿«": 2252,
      "äº§åĵģ": 2253,
      "riv": 2254,
      "**:": 2255,
      "ee": 2256,
      "irect": 2257,
      "ä»¥åıĬ": 2258,
      "Ġsur": 2259,
      "åįĹ": 2260,
      "ä¸Ķ": 2261,
      "MA": 2262,
      "ä½ľä¸º": 2263,
      ").ĊĊ": 2264,
      "ott": 2265,
      "icon": 2266,
      "Ġmodel": 2267,
      ">ĊĊ": 2268,
      "ĠNULL": 2269,
      "æĥħåĨµ": 2270,
      "éĤ£": 2271,
      "è§Ħå®ļ": 2272,
      "Ġright": 2273,
      "æıĲé«ĺ": 2274,
      "åĪĽæĸ°": 2275,
      "Ġmost": 2276,
      "æķĻåŃ¦": 2277,
      "åĨį": 2278,
      "è¨Ģ": 2279,
      "ey": 2280,
      "Ġread": 2281,
      "ric": 2282,
      "content": 2283,
      "index": 2284,
      "ystem": 2285,
      "åĮĹ": 2286,
      "ocument": 2287,
      "formation": 2288,
      "è®¾è®¡": 2289,
      "åºı": 2290,
      "Ġwhat": 2291,
      "hat": 2292,
      "å§ĭ": 2293,
      "================": 2294,
      "ĠX": 2295,
      "mon": 2296,
      "ç»ľ": 2297,
      "iew": 2298,
      "è¶Ĭ": 2299,
      "Ġtext": 2300,
      "ä½ľçĶ¨": 2301,
      "duct": 2302,
      "times": 2303,
      "unc": 2304,
      "Ġca": 2305,
      "plate": 2306,
      "åħ³ç³»": 2307,
      "Ġatt": 2308,
      "////////////////": 2309,
      "Ġpol": 2310,
      "EL": 2311,
      "ified": 2312,
      "åĶ": 2313,
      "Ġ!=": 2314,
      "Ġtem": 2315,
      "åĬŀ": 2316,
      "SS": 2317,
      "ank": 2318,
      "åĲĮæĹ¶": 2319,
      "ä¸Ģç§į": 2320,
      "Ġgroup": 2321,
      "é»": 2322,
      "ally": 2323,
      "å²": 2324,
      "Ġsol": 2325,
      "Ġ((": 2326,
      "åĨĽ": 2327,
      "Ġsame": 2328,
      "stand": 2329,
      "ential": 2330,
      "å¦Ĥæŀľ": 2331,
      "vert": 2332,
      "ç§°": 2333,
      "rame": 2334,
      "åĪĹ": 2335,
      "çĸĹ": 2336,
      "ç¢": 2337,
      "æĻº": 2338,
      "åŁºæľ¬": 2339,
      "from": 2340,
      "lob": 2341,
      "\");Ċ": 2342,
      "å¹²": 2343,
      "åİĭ": 2344,
      "åįİ": 2345,
      "è£ħ": 2346,
      "Ġhelp": 2347,
      "Ġrec": 2348,
      "rix": 2349,
      "VV": 2350,
      "Im": 2351,
      "Ġcomple": 2352,
      "ING": 2353,
      "_W": 2354,
      "Un": 2355,
      "äº§ä¸ļ": 2356,
      "enter": 2357,
      "Ġfact": 2358,
      "å¿µ": 2359,
      "è¿ĻäºĽ": 2360,
      "Ġloc": 2361,
      "ler": 2362,
      "umm": 2363,
      "Ġ)Ċ": 2364,
      "gy": 2365,
      "argin": 2366,
      "èµĦæºĲ": 2367,
      "];Ċ": 2368,
      "åľŁ": 2369,
      "_name": 2370,
      "OO": 2371,
      "çĽ¸åħ³": 2372,
      "(m": 2373,
      "Ġter": 2374,
      "æĿĲ": 2375,
      "script": 2376,
      "ç½ĳç»ľ": 2377,
      "åĨħå®¹": 2378,
      "ribute": 2379,
      "åĿļ": 2380,
      "ription": 2381,
      "å¤±": 2382,
      "æĭ¬": 2383,
      "Ġfalse": 2384,
      "åĸĦ": 2385,
      "Ġrequire": 2386,
      "ĠTr": 2387,
      "ople": 2388,
      "Ġproble": 2389,
      "-color": 2390,
      "let": 2391,
      "çĲĥ": 2392,
      "æī¿": 2393,
      "air": 2394,
      "ç»ĵæŀĦ": 2395,
      "å®¡": 2396,
      "Ġmem": 2397,
      "è´¢": 2398,
      "åı·": 2399,
      "æ´»åĬ¨": 2400,
      "dev": 2401,
      "This": 2402,
      "è¯·": 2403,
      "ç¾¤": 2404,
      "ãģ": 2405,
      "olution": 2406,
      "ache": 2407,
      "ä»ħ": 2408,
      "åıĪ": 2409,
      "_Msk": 2410,
      "sw": 2411,
      "idd": 2412,
      "Ġ*/ĊĊ": 2413,
      "Ġmany": 2414,
      "\")": 2415,
      "lu": 2416,
      "(d": 2417,
      "Cont": 2418,
      "å±±": 2419,
      "æĹı": 2420,
      "?ĊĊ": 2421,
      "endif": 2422,
      "lear": 2423,
      "_{": 2424,
      "pression": 2425,
      "Ġinclude": 2426,
      "ward": 2427,
      "Âł": 2428,
      "çľģ": 2429,
      "éĥ¨åĪĨ": 2430,
      "ä¸ĸçķĮ": 2431,
      "Ġ<_>Ċ": 2432,
      "æĴ": 2433,
      "nb": 2434,
      "çħ§": 2435,
      "&&(": 2436,
      "_size": 2437,
      "efore": 2438,
      "éĻį": 2439,
      "çķ¥": 2440,
      "ote": 2441,
      "Ġoper": 2442,
      "Set": 2443,
      "rop": 2444,
      "ĠAl": 2445,
      "åĩı": 2446,
      "gram": 2447,
      "çŁ¥è¯Ĩ": 2448,
      "è¶³": 2449,
      "éļı": 2450,
      "Ġhad": 2451,
      "é¡»": 2452,
      "IP": 2453,
      "è¿°": 2454,
      "Ġsm": 2455,
      "},Ċ": 2456,
      "config": 2457,
      "url": 2458,
      "å±ŀ": 2459,
      "ically": 2460,
      "çĭ": 2461,
      "Ġexp": 2462,
      "bar": 2463,
      "Ġstudents": 2464,
      "aut": 2465,
      "åħ¶ä»ĸ": 2466,
      "amp": 2467,
      "Ġwho": 2468,
      "ants": 2469,
      "][": 2470,
      "Ġdevelop": 2471,
      "Ġmake": 2472,
      ",.": 2473,
      "ä¼Ĺ": 2474,
      "char": 2475,
      "ersion": 2476,
      "æīĵ": 2477,
      "å¾·": 2478,
      "ited": 2479,
      "ccess": 2480,
      "Ġmust": 2481,
      "_E": 2482,
      "ä¸¥": 2483,
      "Ġpres": 2484,
      ".e": 2485,
      "ba": 2486,
      "CH": 2487,
      "æłĩåĩĨ": 2488,
      "åİĨåı²": 2489,
      "Ġuint": 2490,
      "IL": 2491,
      "ä½ĵç³»": 2492,
      "ox": 2493,
      "æĮī": 2494,
      "itial": 2495,
      "lay": 2496,
      "æİĴ": 2497,
      "ç¦»": 2498,
      "çĥŃ": 2499,
      "æ³ķå¾ĭ": 2500,
      "Ġ\\]ĊĊ": 2501,
      "ten": 2502,
      "md": 2503,
      "alth": 2504,
      "ision": 2505,
      "work": 2506,
      "èį¯": 2507,
      "ormal": 2508,
      "Ġ\"\"": 2509,
      "Ġincre": 2510,
      "ures": 2511,
      "çĶŁæ´»": 2512,
      "object": 2513,
      "&#": 2514,
      "ĠWe": 2515,
      "_g": 2516,
      "ĠĠĠĠĠĠĠĠĠĠĠĠĠĠ": 2517,
      "Ġafter": 2518,
      "Ġeffect": 2519,
      "gin": 2520,
      ".is": 2521,
      "Ġfound": 2522,
      "De": 2523,
      "å§Ķ": 2524,
      "é¡¹çĽ®": 2525,
      "ĠHow": 2526,
      "bs": 2527,
      "UR": 2528,
      "å¤´": 2529,
      "Ġcurrent": 2530,
      "ru": 2531,
      "utton": 2532,
      "tot": 2533,
      "é¦ĸ": 2534,
      "Ġboth": 2535,
      "åĦ": 2536,
      "æ¼": 2537,
      "Sh": 2538,
      "ware": 2539,
      "è¡Įä¸º": 2540,
      "=function": 2541,
      "Ġ\\Ċ": 2542,
      "_ST": 2543,
      "Ġinput": 2544,
      "OT": 2545,
      "```": 2546,
      "Ġhis": 2547,
      "mer": 2548,
      "åĽ´": 2549,
      "èİ·": 2550,
      "color": 2551,
      "åħħ": 2552,
      "tail": 2553,
      "çĲĨè®º": 2554,
      "ization": 2555,
      "Ġstyle": 2556,
      "Ġlevel": 2557,
      "æĪĲä¸º": 2558,
      "roll": 2559,
      "ever": 2560,
      "ily": 2561,
      "Ġhand": 2562,
      "ĠĠĠĠĠĠĠĠĠĠĠĠĠĠĠĠĠĠĠĠĠĠĠĠĠĠĠ": 2563,
      "Ġed": 2564,
      "ving": 2565,
      "ĠĠĠĠĠĠĠĠĠĠĠĠĠĠĠĠĠ": 2566,
      "ists": 2567,
      "åĮħæĭ¬": 2568,
      ".,": 2569,
      "EF": 2570,
      "åĿĩ": 2571,
      "å¤ĦçĲĨ": 2572,
      "rem": 2573,
      "æł¹æį®": 2574,
      "ĠAn": 2575,
      "å½¢æĪĲ": 2576,
      "ptr": 2577,
      "xe": 2578,
      "man": 2579,
      "array": 2580,
      "ç¨İ": 2581,
      "itions": 2582,
      "=e": 2583,
      "èħ": 2584,
      "Ġdoes": 2585,
      "IO": 2586,
      "Par": 2587,
      ",ä½Ĩ": 2588,
      "æĶ¹éĿ©": 2589,
      "().": 2590,
      "æ¢": 2591,
      ",èĢĮ": 2592,
      "'t": 2593,
      "QU": 2594,
      "the": 2595,
      "itive": 2596,
      "args": 2597,
      "é£Ł": 2598,
      "å¤Ł": 2599,
      "ä»ĸä»¬": 2600,
      "å¯¹äºİ": 2601,
      "åĳ¨": 2602,
      "Ġcount": 2603,
      "annel": 2604,
      "img": 2605,
      "Ġerror": 2606,
      "wh": 2607,
      "^{": 2608,
      "åŃĺåľ¨": 2609,
      "adi": 2610,
      "åĽłæŃ¤": 2611,
      "orld": 2612,
      "å¾ģ": 2613,
      "æĪĸèĢħ": 2614,
      "lection": 2615,
      "Element": 2616,
      "dis": 2617,
      "very": 2618,
      "äººçļĦ": 2619,
      "Ġstd": 2620,
      "Ġfield": 2621,
      "adding": 2622,
      ":b": 2623,
      ",r": 2624,
      "ough": 2625,
      ",å¹¶": 2626,
      "(r": 2627,
      "Ġappro": 2628,
      "oci": 2629,
      "è¶ħ": 2630,
      "#endif": 2631,
      "ä¿ĿæĬ¤": 2632,
      "éŁ": 2633,
      "eters": 2634,
      "#if": 2635,
      ",è¿Ļ": 2636,
      "Ġinte": 2637,
      "Ġshow": 2638,
      "Ġcall": 2639,
      "åĽ¢": 2640,
      "Ġ/>Ċ": 2641,
      "word": 2642,
      "ĉĉĉĉĉ": 2643,
      "ottom": 2644,
      "angu": 2645,
      "åĩł": 2646,
      "ä»Ĭ": 2647,
      "è¡Ģ": 2648,
      "æ¬¾": 2649,
      "Ġlearn": 2650,
      "Ġelement": 2651,
      "Ġcould": 2652,
      "ION": 2653,
      "åĽ½éĻħ": 2654,
      "file": 2655,
      "____": 2656,
      "ency": 2657,
      "Ġpeople": 2658,
      "ä»Ģ": 2659,
      "å¯Ĩ": 2660,
      "æĶ¿çŃĸ": 2661,
      "Ġwhile": 2662,
      "ves": 2663,
      "input": 2664,
      "Ġprocess": 2665,
      "åħĭ": 2666,
      "Get": 2667,
      "ules": 2668,
      "GL": 2669,
      "ç«ł": 2670,
      "Ġcolor": 2671,
      "æī§": 2672,
      "Ġdefault": 2673,
      "lags": 2674,
      "äººåĳĺ": 2675,
      "=t": 2676,
      "nav": 2677,
      "ences": 2678,
      "åģ¥": 2679,
      "DC": 2680,
      "else": 2681,
      "åĬ³": 2682,
      "Ġparam": 2683,
      "ains": 2684,
      "ä¿®": 2685,
      "yt": 2686,
      "è´Ł": 2687,
      "æİ§åĪ¶": 2688,
      "ouble": 2689,
      "ocus": 2690,
      "lex": 2691,
      "ared": 2692,
      "icense": 2693,
      "Ġgo": 2694,
      "åıĳçĶŁ": 2695,
      ".org": 2696,
      ".set": 2697,
      "ability": 2698,
      "ane": 2699,
      "move": 2700,
      "result": 2701,
      "oun": 2702,
      "æĪ¿": 2703,
      "Ġsk": 2704,
      "cause": 2705,
      "ait": 2706,
      "Ġstring": 2707,
      "Ġsee": 2708,
      "åĪĩ": 2709,
      "Ġ=>": 2710,
      "CE": 2711,
      "gt": 2712,
      "Ġnull": 2713,
      "Ġsupport": 2714,
      "è¯»": 2715,
      "Ġbecause": 2716,
      "\"),": 2717,
      "vir": 2718,
      "Ġcode": 2719,
      "è®¸": 2720,
      "å¿ħé¡»": 2721,
      "uration": 2722,
      "Ġvalues": 2723,
      "éļľ": 2724,
      "Val": 2725,
      "ä»Ģä¹Ī": 2726,
      "Ġgr": 2727,
      "nbsp": 2728,
      "å¾Ģ": 2729,
      "æĤ": 2730,
      "çĻ½": 2731,
      "Ġgiven": 2732,
      "Ġind": 2733,
      "Ġmax": 2734,
      "éĺ¶": 2735,
      ",ä¸į": 2736,
      "ERR": 2737,
      "ute": 2738,
      "è´¨éĩı": 2739,
      ":function": 2740,
      "['": 2741,
      "ENT": 2742,
      "æĬķèµĦ": 2743,
      "é©¬": 2744,
      "Def": 2745,
      "èĳ": 2746,
      "Ġitem": 2747,
      "urs": 2748,
      "lient": 2749,
      "En": 2750,
      "qq": 2751,
      "err": 2752,
      "xd": 2753,
      "Array": 2754,
      "_data": 2755,
      "Ġcontent": 2756,
      "ually": 2757,
      "arge": 2758,
      "select": 2759,
      "height": 2760,
      "Ġ\\(\\": 2761,
      "}\\": 2762,
      "Ġinv": 2763,
      "ç¬¬ä¸Ģ": 2764,
      "bol": 2765,
      "ken": 2766,
      "...": 2767,
      "He": 2768,
      "å·®": 2769,
      "çĽ®æłĩ": 2770,
      "bl": 2771,
      "å®¢": 2772,
      "ä¸ĵä¸ļ": 2773,
      "Ġpos": 2774,
      "abled": 2775,
      "Ġwater": 2776,
      "æħ": 2777,
      "åĥ": 2778,
      "********************************": 2779,
      "Ġbreak": 2780,
      "omet": 2781,
      "ĠAr": 2782,
      "reg": 2783,
      "ouse": 2784,
      "ync": 2785,
      "Ġcalcul": 2786,
      "è·µ": 2787,
      "å»ºç«ĭ": 2788,
      "Ġpath": 2789,
      "/Ċ": 2790,
      "http": 2791,
      "];": 2792,
      "font": 2793,
      "={": 2794,
      "Ġ);Ċ": 2795,
      "SC": 2796,
      "Ġinformation": 2797,
      "lt": 2798,
      "ĠĠĠĠĠĠĠĠĠĠĠĠĠĠĠĠĠĠĠĠĠĠĠĠĠĠĠĠĠĠĠĠĠĠĠĠĠĠĠĠĠĠĠĠĠĠĠĠĠĠĠĠĠĠĠĠĠĠĠĠĠĠĠĠ": 2799,
      "Ġdisc": 2800,
      "Ġ?": 2801,
      "åĦ¿": 2802,
      "lose": 2803,
      "EM": 2804,
      "fa": 2805,
      "èĤ¡": 2806,
      "acter": 2807,
      "ï¼Įåľ¨": 2808,
      "Index": 2809,
      "æĵ": 2810,
      "Ġpartic": 2811,
      "Ġ(!": 2812,
      "æıĲåĩº": 2813,
      "Ġtarget": 2814,
      "\\Ċ": 2815,
      "ars": 2816,
      "æĢĿæĥ³": 2817,
      "è¿Ļä¸ª": 2818,
      "åĪ©çĶ¨": 2819,
      "ĠGL": 2820,
      "è¯Ŀ": 2821,
      "])": 2822,
      "ateg": 2823,
      "åħ´": 2824,
      "po": 2825,
      "Ġent": 2826,
      "ãĢĤĊĊ": 2827,
      "OM": 2828,
      "\")Ċ": 2829,
      "å®³": 2830,
      "Ġdesc": 2831,
      "pace": 2832,
      "Ġexpect": 2833,
      "ç»Ī": 2834,
      "Text": 2835,
      "ince": 2836,
      "åĨĻ": 2837,
      "è§£åĨ³": 2838,
      "([": 2839,
      "eta": 2840,
      "Ġlog": 2841,
      "ä¸ĢäºĽ": 2842,
      "ural": 2843,
      "Ġsrc": 2844,
      "valid": 2845,
      "Ġwidth": 2846,
      "æŁĲ": 2847,
      "An": 2848,
      "åĲ¦": 2849,
      "State": 2850,
      "Ġknow": 2851,
      "pi": 2852,
      "å¼ł": 2853,
      "çĻ¾": 2854,
      "Ġdec": 2855,
      "Ġ|Ċ": 2856,
      "è¿ŀ": 2857,
      "odule": 2858,
      "Ġwell": 2859,
      "æĳ": 2860,
      "è¾ĵ": 2861,
      "Ġlow": 2862,
      "TH": 2863,
      "uch": 2864,
      "å·¥ç¨ĭ": 2865,
      "Ġbool": 2866,
      "éĺŁ": 2867,
      "xc": 2868,
      "mm": 2869,
      "çİ°ä»£": 2870,
      "logy": 2871,
      "Ġcond": 2872,
      "-st": 2873,
      "Ġjust": 2874,
      "Ġra": 2875,
      "Size": 2876,
      "ism": 2877,
      "Al": 2878,
      "èĲ½": 2879,
      "light": 2880,
      "wn": 2881,
      "ICAg": 2882,
      "åĬŁèĥ½": 2883,
      "Ġyears": 2884,
      "{\"": 2885,
      "æľºæŀĦ": 2886,
      "UP": 2887,
      "æ¿": 2888,
      "ART": 2889,
      "Ġ+=": 2890,
      "åº·": 2891,
      "mit": 2892,
      "(i": 2893,
      "size": 2894,
      "<div": 2895,
      "ivity": 2896,
      "ï¼Ĥ": 2897,
      "è®¤ä¸º": 2898,
      "Ġtitle": 2899,
      "head": 2900,
      "Ġunderstand": 2901,
      "ä¹ĭéĹ´": 2902,
      "å¡": 2903,
      "ero": 2904,
      "ä¿ĥ": 2905,
      "ä»·åĢ¼": 2906,
      "æĻ¯": 2907,
      "èīº": 2908,
      "ç¼ĸ": 2909,
      "åĩºçİ°": 2910,
      "ets": 2911,
      "å®ŀè·µ": 2912,
      "As": 2913,
      "æľīæķĪ": 2914,
      "new": 2915,
      "Ġoutput": 2916,
      "],[": 2917,
      "Ġnp": 2918,
      "æĶ¿æ²»": 2919,
      "ä¾¿": 2920,
      "Ġ\\[": 2921,
      "anguage": 2922,
      "\"]": 2923,
      "=this": 2924,
      "äº§çĶŁ": 2925,
      "æĭ©": 2926,
      "map": 2927,
      "éĥ¨éĹ¨": 2928,
      "ron": 2929,
      "enu": 2930,
      "åĪĿ": 2931,
      "link": 2932,
      "Ġ\"\"\"Ċ": 2933,
      "æ¦": 2934,
      "other": 2935,
      "CL": 2936,
      "åħį": 2937,
      "totype": 2938,
      "å®ŀæĸ½": 2939,
      "ĠUS": 2940,
      "Ġallow": 2941,
      "çªģ": 2942,
      "Item": 2943,
      "Ġinst": 2944,
      "aa": 2945,
      "esc": 2946,
      "TM": 2947,
      "å¼Ĥ": 2948,
      "æ°´å¹³": 2949,
      "_v": 2950,
      "itor": 2951,
      "Ġcheck": 2952,
      "å¤§çļĦ": 2953,
      "çĶ±äºİ": 2954,
      "Ġdiv": 2955,
      "Ġcre": 2956,
      "Ġanal": 2957,
      "bd": 2958,
      "é£İéĻ©": 2959,
      "Ġnumbers": 2960,
      "ç§»": 2961,
      "www": 2962,
      "place": 2963,
      "é¢ĨåŁŁ": 2964,
      "å¾®": 2965,
      "åĽłä¸º": 2966,
      "\\]ĊĊ": 2967,
      "å¿Ĺ": 2968,
      "Ġfollowing": 2969,
      "AAAAAAAA": 2970,
      "è®¡ç®Ĺ": 2971,
      "æ¸©": 2972,
      "offset": 2973,
      "Ġmeas": 2974,
      "Key": 2975,
      "max": 2976,
      "ĊĊĊĊ": 2977,
      "---": 2978,
      "ats": 2979,
      "ning": 2980,
      "Info": 2981,
      "Event": 2982,
      "Ġpers": 2983,
      "IR": 2984,
      "ç®Ģ": 2985,
      "lation": 2986,
      "At": 2987,
      "Ġident": 2988,
      "\".": 2989,
      "MC": 2990,
      ",æĺ¯": 2991,
      "lot": 2992,
      "åŁİå¸Ĥ": 2993,
      "list": 2994,
      "Time": 2995,
      "Ġmed": 2996,
      "æĻ®": 2997,
      "imate": 2998,
      "æ¿Ģ": 2999,
      "å·²ç»ı": 3000,
      "reen": 3001,
      "Ġmon": 3002,
      "ply": 3003,
      "ift": 3004,
      "ç¨³": 3005,
      "doc": 3006,
      "sl": 3007,
      "çĮ": 3008,
      "ables": 3009,
      "action": 3010,
      "Ġstudy": 3011,
      ").Ċ": 3012,
      "Ġnode": 3013,
      "med": 3014,
      "aterial": 3015,
      "Ġnon": 3016,
      "Ġret": 3017,
      "æķħ": 3018,
      "ç¾İåĽ½": 3019,
      ".S": 3020,
      "Ref": 3021,
      "è¿Ļç§į": 3022,
      "Ġcar": 3023,
      ",i": 3024,
      "ä¸ĬçļĦ": 3025,
      "âĶ": 3026,
      "åĪ¤": 3027,
      "util": 3028,
      "ĊĊĊ": 3029,
      "æĭħ": 3030,
      "é¥": 3031,
      "Ġway": 3032,
      "è´£ä»»": 3033,
      "Ġtra": 3034,
      "\\[Ċ": 3035,
      "æ¹": 3036,
      "active": 3037,
      "à¸": 3038,
      "éĢīæĭ©": 3039,
      "uments": 3040,
      "break": 3041,
      ",ä¹Ł": 3042,
      "åĤ": 3043,
      "éĶĢ": 3044,
      "æ»¡": 3045,
      "ĠâĢĵ": 3046,
      "éĩĳèŀį": 3047,
      "è§Ĵ": 3048,
      "gle": 3049,
      "};ĊĊ": 3050,
      "For": 3051,
      "itch": 3052,
      "è¯ī": 3053,
      "ä¸įèĥ½": 3054,
      "ä¸Ńå¿ĥ": 3055,
      "Ġeven": 3056,
      "ret": 3057,
      "table": 3058,
      "æİ¢": 3059,
      "sponse": 3060,
      "æĿ¡ä»¶": 3061,
      "ulation": 3062,
      "true": 3063,
      "By": 3064,
      "çīĩ": 3065,
      "Ġins": 3066,
      "åı¤": 3067,
      "Ġprodu": 3068,
      "åĥı": 3069,
      "Ġref": 3070,
      "EXT": 3071,
      "Ġindex": 3072,
      "æŁĵ": 3073,
      "ension": 3074,
      "Ġrepres": 3075,
      "å¯Į": 3076,
      "plication": 3077,
      "Ġmet": 3078,
      "åĲ«": 3079,
      "col": 3080,
      "bf": 3081,
      "æ¨¡å¼ı": 3082,
      "ases": 3083,
      "ĠSo": 3084,
      "è®Ń": 3085,
      "Ð¾": 3086,
      "Ġ\\),": 3087,
      "æįŁ": 3088,
      "Ġbl": 3089,
      "åħ¨éĿ¢": 3090,
      "nect": 3091,
      "èĪ¬": 3092,
      "inu": 3093,
      "agn": 3094,
      "eature": 3095,
      "ross": 3096,
      "æīĢæľī": 3097,
      "Ġorder": 3098,
      "å®ŀéĻħ": 3099,
      "Ġsecond": 3100,
      "gan": 3101,
      ">(": 3102,
      "math": 3103,
      "quot": 3104,
      "è¿ľ": 3105,
      "è¡Įä¸ļ": 3106,
      "ffic": 3107,
      "angle": 3108,
      "OP": 3109,
      "important": 3110,
      "çļĦæĺ¯": 3111,
      "Ġcells": 3112,
      "Ġless": 3113,
      "Ġq": 3114,
      "ä¸Ģå®ļ": 3115,
      "_pro": 3116,
      "Ġrem": 3117,
      "!--": 3118,
      "Ġgen": 3119,
      "point": 3120,
      "Ð°": 3121,
      "Ġsmall": 3122,
      ".x": 3123,
      "attr": 3124,
      "<<": 3125,
      "åł": 3126,
      "IV": 3127,
      "-.": 3128,
      "Ġear": 3129,
      "Ġcalled": 3130,
      ";</": 3131,
      "èĥ½å¤Ł": 3132,
      "version": 3133,
      "Class": 3134,
      "ook": 3135,
      "ä¼łç»Ł": 3136,
      "TE": 3137,
      "æĤ£": 3138,
      "æī¹": 3139,
      "ç«¯": 3140,
      "mand": 3141,
      "ithub": 3142,
      "Ġlength": 3143,
      ".in": 3144,
      "Ġprote": 3145,
      "hor": 3146,
      "å¦Ĥä½ķ": 3147,
      "tn": 3148,
      "eturn": 3149,
      "ä¸įæĺ¯": 3150,
      "Ġmulti": 3151,
      "æĸ¯": 3152,
      "ATE": 3153,
      "child": 3154,
      "å¤§åŃ¦": 3155,
      "ife": 3156,
      "ayer": 3157,
      "åľ°åĮº": 3158,
      "AI": 3159,
      "Ġdefined": 3160,
      "ords": 3161,
      "è´§": 3162,
      "Ġduring": 3163,
      "jav": 3164,
      "Ġbefore": 3165,
      "SR": 3166,
      "ainer": 3167,
      "ement": 3168,
      "On": 3169,
      ",ä»¥": 3170,
      "/s": 3171,
      "iod": 3172,
      "verse": 3173,
      "_EN": 3174,
      "-in": 3175,
      "ting": 3176,
      ".r": 3177,
      "çºª": 3178,
      "èµ°": 3179,
      "sg": 3180,
      "YPE": 3181,
      "ypes": 3182,
      "èı": 3183,
      "ingle": 3184,
      "ptional": 3185,
      "IZ": 3186,
      "è½½": 3187,
      "åıĳçİ°": 3188,
      "Ġwrit": 3189,
      "åįķä½į": 3190,
      "æĬĹ": 3191,
      "_set": 3192,
      "ummary": 3193,
      "plement": 3194,
      "çĭ¬": 3195,
      "ä¹¡": 3196,
      "ç«Ļ": 3197,
      "Qu": 3198,
      "null": 3199,
      "åĭ": 3200,
      "**ĊĊ": 3201,
      "æĹ¶ä»£": 3202,
      "Ġside": 3203,
      "ABLE": 3204,
      "æŃ¢": 3205,
      "-r": 3206,
      "çł´": 3207,
      "OOST": 3208,
      "ç¼º": 3209,
      "å¯Ł": 3210,
      "viron": 3211,
      "Ġblock": 3212,
      "Ġconfig": 3213,
      "æ¸¸": 3214,
      "desc": 3215,
      "TC": 3216,
      "å¤ª": 3217,
      "è®²": 3218,
      "Ġtri": 3219,
      "åĬ³åĬ¨": 3220,
      "Ġlarge": 3221,
      "sq": 3222,
      "image": 3223,
      "bb": 3224,
      "DR": 3225,
      "ium": 3226,
      "ĠZ": 3227,
      "ç§ĳæĬĢ": 3228,
      "ä¸´": 3229,
      "è¡¥": 3230,
      "å¢ŀåĬł": 3231,
      "èĥŀ": 3232,
      "/c": 3233,
      "user": 3234,
      "til": 3235,
      "ĠHe": 3236,
      "[@": 3237,
      "Ġrun": 3238,
      "Ġsource": 3239,
      "è¾¹": 3240,
      "aking": 3241,
      "ä¸ĢèĪ¬": 3242,
      ".prototype": 3243,
      "ted": 3244,
      "ï¼Įå¹¶": 3245,
      "ensor": 3246,
      "å½ķ": 3247,
      "åĬłå¼º": 3248,
      "/m": 3249,
      "align": 3250,
      "ç¬¬äºĮ": 3251,
      "perties": 3252,
      "ï¼Ł": 3253,
      "Ġchang": 3254,
      "Ġquest": 3255,
      "æľºåĪ¶": 3256,
      "åıĮ": 3257,
      "Ġ\"\"\"": 3258,
      "çŁ³": 3259,
      "èĭ±": 3260,
      "æį¢": 3261,
      "=\"#": 3262,
      "LL": 3263,
      "ness": 3264,
      "EB": 3265,
      "xa": 3266,
      "Ġocc": 3267,
      "Ġwithout": 3268,
      "})": 3269,
      "border": 3270,
      "æķĻå¸Ī": 3271,
      "ĠIN": 3272,
      "ç²¾ç¥ŀ": 3273,
      "ODE": 3274,
      "éĵ¶": 3275,
      "TION": 3276,
      "ope": 3277,
      "Ġcr": 3278,
      "å¼Ģåıĳ": 3279,
      "api": 3280,
      ":#": 3281,
      "Ġhtt": 3282,
      "ç¤¾ä¼ļä¸»ä¹ī": 3283,
      "acity": 3284,
      "_to": 3285,
      "ished": 3286,
      "å£«": 3287,
      "çļĦäºº": 3288,
      "Ġhum": 3289,
      "Ġdeter": 3290,
      "ik": 3291,
      "ĠSe": 3292,
      "ä¸¾": 3293,
      "ification": 3294,
      "Ġexper": 3295,
      "atrix": 3296,
      "Ġprint": 3297,
      "åıĺåĮĸ": 3298,
      "Ġrange": 3299,
      "anc": 3300,
      "æļ": 3301,
      "è¡ĮæĶ¿": 3302,
      "Ġthree": 3303,
      "comp": 3304,
      "ï¼Įä½Ĩ": 3305,
      "Ġcommon": 3306,
      "éľĢæ±Ĥ": 3307,
      "None": 3308,
      "ients": 3309,
      "ç»ĵåĲĪ": 3310,
      "Ġcontrol": 3311,
      "Ġchange": 3312,
      "hold": 3313,
      "ãĥ": 3314,
      "Ġevery": 3315,
      "å¢ŀéķ¿": 3316,
      "ä¸įæĸŃ": 3317,
      "Ġchildren": 3318,
      "(\\": 3319,
      "ĠAs": 3320,
      "lobal": 3321,
      "ĠYou": 3322,
      "Color": 3323,
      "gen": 3324,
      "éĶ®": 3325,
      "æĶ¯æĮģ": 3326,
      "åı¦": 3327,
      "ources": 3328,
      "Ġdown": 3329,
      "Ġimportant": 3330,
      "\"çļĦ": 3331,
      "æ¦Ĥ": 3332,
      "çı": 3333,
      ".add": 3334,
      "Cl": 3335,
      "Ġtop": 3336,
      "Ġpower": 3337,
      "æ±Ł": 3338,
      "ĠPy": 3339,
      "Ġresearch": 3340,
      "çĽ®åīį": 3341,
      "Ġspe": 3342,
      "ä»ĭ": 3343,
      "è®¾å¤ĩ": 3344,
      "è¿Ļä¸Ģ": 3345,
      "æİ¨è¿Ľ": 3346,
      "web": 3347,
      "assert": 3348,
      "ks": 3349,
      "gs": 3350,
      "é¢Ŀ": 3351,
      "FB": 3352,
      "æīĢä»¥": 3353,
      "meric": 3354,
      "ç»¼": 3355,
      ".app": 3356,
      "çİĭ": 3357,
      "å¤®": 3358,
      "time": 3359,
      "idden": 3360,
      "çīĪ": 3361,
      "akes": 3362,
      "ç´¢": 3363,
      "Ġhealth": 3364,
      "Ġfloat": 3365,
      "ĠIm": 3366,
      "æ°ĳæĹı": 3367,
      "IB": 3368,
      "INT": 3369,
      ".ex": 3370,
      "CT": 3371,
      "-h": 3372,
      "andle": 3373,
      "File": 3374,
      "ä¸ĢæŃ¥": 3375,
      "ĠDe": 3376,
      "Ðµ": 3377,
      "Ġelect": 3378,
      "any": 3379,
      "ĠĠĠĠĊ": 3380,
      "èī¯": 3381,
      "vg": 3382,
      "erence": 3383,
      "å±ħ": 3384,
      "ĉstruct": 3385,
      "åįł": 3386,
      ".åľ¨": 3387,
      ".de": 3388,
      "Ġincl": 3389,
      "åĢº": 3390,
      "Ġvis": 3391,
      "arm": 3392,
      "CB": 3393,
      "ä½ı": 3394,
      "Ġbeing": 3395,
      "ORT": 3396,
      "Ġpop": 3397,
      "Ġ///": 3398,
      "Int": 3399,
      "cccc": 3400,
      "éĵ¾": 3401,
      "OS": 3402,
      "æĢ§çļĦ": 3403,
      "ram": 3404,
      "ination": 3405,
      "æķ°åŃĹ": 3406,
      "Ġlook": 3407,
      "Ġevent": 3408,
      "Ġcreate": 3409,
      "df": 3410,
      "Of": 3411,
      "å¼Ģå§ĭ": 3412,
      "stru": 3413,
      "ï¼ĮèĢĮ": 3414,
      ":{": 3415,
      "background": 3416,
      "ception": 3417,
      ".js": 3418,
      "åĢĻ": 3419,
      "Ġvery": 3420,
      "Ġposs": 3421,
      "Ġdirect": 3422,
      "jo": 3423,
      "ç»Ĩèĥŀ": 3424,
      "options": 3425,
      "imal": 3426,
      ".to": 3427,
      "à¤": 3428,
      "ä»½": 3429,
      "Ġ===": 3430,
      "\";Ċ": 3431,
      "hip": 3432,
      "ae": 3433,
      "land": 3434,
      "Ġthose": 3435,
      "Ġbit": 3436,
      "ä¸ªäºº": 3437,
      "ives": 3438,
      ":before": 3439,
      "æİ¨åĬ¨": 3440,
      "Ġarea": 3441,
      "Ġest": 3442,
      "!==": 3443,
      "Ġheight": 3444,
      "éĤ": 3445,
      "Ġlim": 3446,
      "\";": 3447,
      "Ġlast": 3448,
      "uding": 3449,
      "Ġ\\,": 3450,
      "etic": 3451,
      "åŃ¦æł¡": 3452,
      "Ġcent": 3453,
      "çĶŁæĢģ": 3454,
      "NA": 3455,
      "çº³": 3456,
      "åĲĪä½ľ": 3457,
      "defined": 3458,
      "åĽº": 3459,
      "Ġorig": 3460,
      "ãĤ": 3461,
      "å·¥ä¸ļ": 3462,
      "ived": 3463,
      "MD": 3464,
      "yc": 3465,
      "len": 3466,
      "lib": 3467,
      "Ġleft": 3468,
      "åºĶå½ĵ": 3469,
      "èĩªçĦ¶": 3470,
      "_con": 3471,
      "quare": 3472,
      "æıĲåįĩ": 3473,
      "åŃ©": 3474,
      "ansp": 3475,
      "æľīåħ³": 3476,
      "ustom": 3477,
      "Att": 3478,
      "ç»ĵæŀľ": 3479,
      "Ġconsider": 3480,
      "Ser": 3481,
      "Add": 3482,
      "pty": 3483,
      "go": 3484,
      "xB": 3485,
      "æĿĲæĸĻ": 3486,
      "ds": 3487,
      "pos": 3488,
      "Ġav": 3489,
      "icro": 3490,
      "å·ŀ": 3491,
      "éŁ³": 3492,
      "æĵį": 3493,
      "ĠThey": 3494,
      "æĲ": 3495,
      "ior": 3496,
      "PU": 3497,
      "asc": 3498,
      "Ġtech": 3499,
      "Ġtry": 3500,
      "///": 3501,
      "top": 3502,
      "ivers": 3503,
      "åŁ¹åħ»": 3504,
      "andard": 3505,
      "åİ¿": 3506,
      ",c": 3507,
      "UM": 3508,
      "andom": 3509,
      "æŀĹ": 3510,
      "äº¬": 3511,
      "ftware": 3512,
      "uss": 3513,
      "quence": 3514,
      "itional": 3515,
      "å®¤": 3516,
      "width": 3517,
      "åĲ¸": 3518,
      "åħ¨åĽ½": 3519,
      "Ġprogram": 3520,
      ".push": 3521,
      "_ex": 3522,
      "Ġmean": 3523,
      "ĠÐ": 3524,
      "pyx": 3525,
      "Ġversion": 3526,
      "Form": 3527,
      "artic": 3528,
      "åħ¨çĲĥ": 3529,
      "åıĳå±ķçļĦ": 3530,
      "å¼Ģå±ķ": 3531,
      "come": 3532,
      "lease": 3533,
      "ĠThese": 3534,
      "Code": 3535,
      "template": 3536,
      "SP": 3537,
      "iled": 3538,
      "down": 3539,
      "æĻºèĥ½": 3540,
      "ailable": 3541,
      "ç»§": 3542,
      "æ¤": 3543,
      ",this": 3544,
      "Inter": 3545,
      "']": 3546,
      "éĺ¶æ®µ": 3547,
      "ä¹Ĳ": 3548,
      "used": 3549,
      "Ġdistribut": 3550,
      "å°½": 3551,
      "usion": 3552,
      "Ġresults": 3553,
      "åħŃ": 3554,
      "Ġmy": 3555,
      ",a": 3556,
      "Ġproblem": 3557,
      "Ġnow": 3558,
      "EV": 3559,
      "å®ĺ": 3560,
      "æĸ°çļĦ": 3561,
      "éĿĴ": 3562,
      "çĽ´æİ¥": 3563,
      "ifier": 3564,
      "aces": 3565,
      "åºķ": 3566,
      "Py": 3567,
      "ital": 3568,
      "å£°": 3569,
      "_get": 3570,
      "ĠLicense": 3571,
      "å¥³": 3572,
      "(const": 3573,
      "è´Ń": 3574,
      "å¹³åı°": 3575,
      "è§ī": 3576,
      "ysis": 3577,
      "Ġequal": 3578,
      "print": 3579,
      "Ġredu": 3580,
      "ĠĠĠĠĠĠĠĠĠĠĠĠĠĠĠĠĠĠĠĠĠĠĠĠĠĠĠĠĠĠĠ": 3581,
      "ND": 3582,
      "az": 3583,
      "Ġlead": 3584,
      "çĸ«": 3585,
      "Ġmode": 3586,
      "ather": 3587,
      "Ġbase": 3588,
      "_sc": 3589,
      "github": 3590,
      "Ġreal": 3591,
      "Ġsym": 3592,
      "\"},": 3593,
      "å°Ķ": 3594,
      "ä¿ĥè¿Ľ": 3595,
      "(!": 3596,
      "format": 3597,
      "CD": 3598,
      "_se": 3599,
      "Ġinvol": 3600,
      "Ġarray": 3601,
      "ety": 3602,
      "åħ¶ä¸Ń": 3603,
      "ç§¯æŀģ": 3604,
      "çº¢": 3605,
      "èĬ±": 3606,
      "oken": 3607,
      "éĴĪ": 3608,
      "gest": 3609,
      "chool": 3610,
      "æ²¹": 3611,
      "Ġenc": 3612,
      "/**Ċ": 3613,
      "Is": 3614,
      "(--": 3615,
      "orch": 3616,
      "aining": 3617,
      "Ġbuild": 3618,
      "æľĽ": 3619,
      "Ġcirc": 3620,
      "tal": 3621,
      "Param": 3622,
      "è¿Ļæł·": 3623,
      "rag": 3624,
      "MS": 3625,
      "std": 3626,
      "\"}": 3627,
      "less": 3628,
      "ä»£è¡¨": 3629,
      "Ġcomput": 3630,
      "ots": 3631,
      "æĮ¥": 3632,
      "Ġbr": 3633,
      "åĿļæĮģ": 3634,
      "é¢Ĩå¯¼": 3635,
      "è¯¾ç¨ĭ": 3636,
      "æ¶Īè´¹": 3637,
      "ĠTo": 3638,
      "Ġbody": 3639,
      "æĪĺçķ¥": 3640,
      "OW": 3641,
      "ĠAmeric": 3642,
      "thon": 3643,
      "Ġperform": 3644,
      "ports": 3645,
      "é¾": 3646,
      "ven": 3647,
      "ç±³": 3648,
      "Ġmuch": 3649,
      "Ġsignific": 3650,
      "ĠAdd": 3651,
      "True": 3652,
      "Ġnext": 3653,
      "ç»¼åĲĪ": 3654,
      "adius": 3655,
      "Ġwithin": 3656,
      "allback": 3657,
      "ä¿Ŀéļľ": 3658,
      "me": 3659,
      "åħ±åĲĮ": 3660,
      "Ġlen": 3661,
      "Ġpublic": 3662,
      "ixed": 3663,
      "<T": 3664,
      "Ġselect": 3665,
      "åĨľä¸ļ": 3666,
      ",b": 3667,
      "_val": 3668,
      "vironment": 3669,
      "ASK": 3670,
      "ĠBOOST": 3671,
      "æī©": 3672,
      "internal": 3673,
      "Ġspecific": 3674,
      "PC": 3675,
      "ĠSh": 3676,
      "ways": 3677,
      "å¥½çļĦ": 3678,
      "äº¿": 3679,
      "åħļçļĦ": 3680,
      "æī§è¡Į": 3681,
      "å¯¼èĩ´": 3682,
      "source": 3683,
      "ĠWhat": 3684,
      "Out": 3685,
      "ither": 3686,
      "ä»ĺ": 3687,
      "Reg": 3688,
      "Up": 3689,
      "æĿĤ": 3690,
      "Or": 3691,
      "ĠThere": 3692,
      "\\),": 3693,
      "âĢ¦": 3694,
      "ergy": 3695,
      "ç«ŀ": 3696,
      "ience": 3697,
      ".M": 3698,
      "å¨": 3699,
      "asses": 3700,
      "åĩ»": 3701,
      "etwork": 3702,
      "æĪĲæľ¬": 3703,
      "_info": 3704,
      "_CON": 3705,
      "UE": 3706,
      "æĿ¿": 3707,
      "Config": 3708,
      "å½¢å¼ı": 3709,
      "åħ·ä½ĵ": 3710,
      "idual": 3711,
      "åŃ©åŃĲ": 3712,
      "Â·": 3713,
      "Ġrepresent": 3714,
      "ls": 3715,
      "Ġbeh": 3716,
      "();": 3717,
      "(h": 3718,
      "Ġuser": 3719,
      "ç½ª": 3720,
      "æĹ©": 3721,
      "Ġtypedef": 3722,
      "ä¸Ńå¤®": 3723,
      "ALL": 3724,
      "Ġrequest": 3725,
      "çļĦåıĳå±ķ": 3726,
      "æ½": 3727,
      "Test": 3728,
      "åħ³éĶ®": 3729,
      "Ġexpl": 3730,
      "co": 3731,
      "åĲĪåĲĮ": 3732,
      "path": 3733,
      "ĠRes": 3734,
      "çĹĩ": 3735,
      "çĶ³": 3736,
      "iff": 3737,
      "è¿ĩç¨ĭä¸Ń": 3738,
      "æł¸å¿ĥ": 3739,
      "ari": 3740,
      "vious": 3741,
      "Ġworld": 3742,
      "bed": 3743,
      "Ġart": 3744,
      "gress": 3745,
      "margin": 3746,
      "åį±": 3747,
      "éĩĬ": 3748,
      "')": 3749,
      "xb": 3750,
      "(_": 3751,
      "Ġborder": 3752,
      "=\"../": 3753,
      "è¿Ľä¸ĢæŃ¥": 3754,
      "olumn": 3755,
      "æ²³": 3756,
      "éĩĩçĶ¨": 3757,
      "Ġcommun": 3758,
      "init": 3759,
      "Ġaw": 3760,
      "ãĢĤåľ¨": 3761,
      "åģ¥åº·": 3762,
      "äº«": 3763,
      "xD": 3764,
      "Ġgl": 3765,
      "imum": 3766,
      "ponent": 3767,
      "Op": 3768,
      "æ¯Ĵ": 3769,
      "Ġpass": 3770,
      "_CH": 3771,
      "Ġfre": 3772,
      "oll": 3773,
      "ove": 3774,
      "aster": 3775,
      "éĺ³": 3776,
      "Ġconf": 3777,
      "Ġoften": 3778,
      "cb": 3779,
      "Ġpresent": 3780,
      "({": 3781,
      "dt": 3782,
      "æİª": 3783,
      "Ġmark": 3784,
      "Ġet": 3785,
      "Ġrefer": 3786,
      "Ġagain": 3787,
      "æ¯Ķè¾ĥ": 3788,
      "PL": 3789,
      "lete": 3790,
      "ries": 3791,
      "Ð¸": 3792,
      "ç¬¦": 3793,
      ",ä»İ": 3794,
      "aid": 3795,
      "Ġcontext": 3796,
      "èĩªå·±çļĦ": 3797,
      "Ġincluding": 3798,
      "åĽŃ": 3799,
      "-g": 3800,
      "parse": 3801,
      "HE": 3802,
      "ä¸ºäºĨ": 3803,
      "åį«": 3804,
      "AY": 3805,
      "Ġposition": 3806,
      "çĨ": 3807,
      "Ġmeasure": 3808,
      "èĨ": 3809,
      "$$": 3810,
      "Ġgrow": 3811,
      "Ġcopy": 3812,
      "Ġfn": 3813,
      "Table": 3814,
      "éĢĲ": 3815,
      "xy": 3816,
      "çŃĳ": 3817,
      "Ġshe": 3818,
      "åħ³äºİ": 3819,
      "èĮĥåĽ´": 3820,
      "rects": 3821,
      "icult": 3822,
      "æĮģç»Ń": 3823,
      "å°Ħ": 3824,
      "çĶŁçī©": 3825,
      "mt": 3826,
      "Ġmade": 3827,
      "Ġtable": 3828,
      "day": 3829,
      "SD": 3830,
      "Ġknown": 3831,
      "ç©ºéĹ´": 3832,
      "istory": 3833,
      "Ġenergy": 3834,
      "ental": 3835,
      "AX": 3836,
      "sqrt": 3837,
      "æĿ¥çļĦ": 3838,
      "inary": 3839,
      "Ġimage": 3840,
      "FG": 3841,
      "Ġview": 3842,
      "å¸ģ": 3843,
      "miss": 3844,
      "Stud": 3845,
      "Ġcur": 3846,
      "PT": 3847,
      "ique": 3848,
      "ç¬¬ä¸ī": 3849,
      "é¢ĳ": 3850,
      ".y": 3851,
      "Ġdise": 3852,
      "ç¨ĭåºı": 3853,
      "éĩįçĤ¹": 3854,
      "Ġstatic": 3855,
      "ches": 3856,
      "sub": 3857,
      "Ġequation": 3858,
      "-type": 3859,
      "output": 3860,
      "xC": 3861,
      "çķĻ": 3862,
      "Ġtotal": 3863,
      "AE": 3864,
      "åĲĦç§į": 3865,
      "-re": 3866,
      "è¾¾åĪ°": 3867,
      "çģ«": 3868,
      "num": 3869,
      "xE": 3870,
      "late": 3871,
      "Ġsever": 3872,
      "æ³¢": 3873,
      "ason": 3874,
      "=(": 3875,
      "valu": 3876,
      "TL": 3877,
      "æ±¡": 3878,
      "Ġ\"\\": 3879,
      "å®ŀéªĮ": 3880,
      "')Ċ": 3881,
      "Ġsample": 3882,
      "Ġant": 3883,
      "@@": 3884,
      "æ²»çĸĹ": 3885,
      "ilar": 3886,
      "ĠĠĠĠĠĠĠĠĠĠĠĠĠĠĠĠĠĠĠĠĠ": 3887,
      "ager": 3888,
      "ytes": 3889,
      "-to": 3890,
      "Ġproduct": 3891,
      "ride": 3892,
      "å®ĮæĪĲ": 3893,
      "çĶ»": 3894,
      "abs": 3895,
      "=a": 3896,
      "èĳĹ": 3897,
      ".data": 3898,
      "åľ°æĸ¹": 3899,
      "åĿĹ": 3900,
      "ç»ıèĲ¥": 3901,
      "çĿ£": 3902,
      "PIO": 3903,
      "Ġpract": 3904,
      "çļĦä¸Ģ": 3905,
      "header": 3906,
      ".C": 3907,
      "hy": 3908,
      "Ġmatch": 3909,
      "é¼": 3910,
      "opt": 3911,
      "äºļ": 3912,
      ";&": 3913,
      "amily": 3914,
      "=[": 3915,
      "ç£": 3916,
      "å¾ĹåĪ°": 3917,
      "fess": 3918,
      "âĢĿï¼Į": 3919,
      "Ġtake": 3920,
      "Ġexpected": 3921,
      "Ġtreat": 3922,
      "åħ«": 3923,
      "è®¡åĪĴ": 3924,
      "Ġown": 3925,
      "We": 3926,
      "bool": 3927,
      "acy": 3928,
      "dir": 3929,
      "_ch": 3930,
      "amespace": 3931,
      "apter": 3932,
      "ĠEX": 3933,
      "ä»į": 3934,
      "state": 3935,
      "AF": 3936,
      "cm": 3937,
      "æı¡": 3938,
      "ula": 3939,
      "Ġperson": 3940,
      "çŁŃ": 3941,
      "çłģ": 3942,
      ",å¯¹": 3943,
      "ymbol": 3944,
      "Ġopen": 3945,
      "è½¯": 3946,
      "start": 3947,
      "èİ·å¾Ĺ": 3948,
      "=\"../../": 3949,
      "åºĵ": 3950,
      "ï¼Įæĺ¯": 3951,
      "ĠSc": 3952,
      "æĺİç¡®": 3953,
      "åĽłç´ł": 3954,
      "ention": 3955,
      "Values": 3956,
      "Ġbackground": 3957,
      "åĤ¨": 3958,
      "Ġinitial": 3959,
      "ÑĤ": 3960,
      "æ¶²": 3961,
      "ï¼Įä¹Ł": 3962,
      "{\\": 3963,
      "open": 3964,
      "ä»¤": 3965,
      "è¯į": 3966,
      "æİĪ": 3967,
      "kit": 3968,
      "ga": 3969,
      "åħ¸": 3970,
      "son": 3971,
      "ators": 3972,
      "bove": 3973,
      "Sub": 3974,
      "title": 3975,
      "Ġunsigned": 3976,
      "ained": 3977,
      "_path": 3978,
      "Ġvir": 3979,
      "Ġmaterial": 3980,
      "Ø§": 3981,
      "Map": 3982,
      "çĪ±": 3983,
      "ĠNew": 3984,
      "lip": 3985,
      "äºĪ": 3986,
      "_add": 3987,
      "Ġhere": 3988,
      "DB": 3989,
      "_int": 3990,
      "enum": 3991,
      "(l": 3992,
      "Ġaround": 3993,
      "rivate": 3994,
      "sess": 3995,
      "PS": 3996,
      "å®ĮåĸĦ": 3997,
      "äºĳ": 3998,
      "âĢĶâĢĶ": 3999,
      ",æľī": 4000,
      "(struct": 4001,
      "åİŁåĪĻ": 4002,
      "\"ĊĊ": 4003,
      "èģļ": 4004,
      "åĮĸçļĦ": 4005,
      "åīĤ": 4006,
      "æĵįä½ľ": 4007,
      "obj": 4008,
      "XFF": 4009,
      "gba": 4010,
      "Ġsw": 4011,
      "If": 4012,
      "ãĢĢ": 4013,
      "äººæīį": 4014,
      "pu": 4015,
      "Ġlight": 4016,
      "roid": 4017,
      "Ġbased": 4018,
      "INE": 4019,
      "acc": 4020,
      "flow": 4021,
      "Field": 4022,
      "Ġspace": 4023,
      "åıĤä¸İ": 4024,
      "ç¡®å®ļ": 4025,
      "////////////////////////////////": 4026,
      "çī¹èī²": 4027,
      "çĶ¨äºİ": 4028,
      "-left": 4029,
      ":[": 4030,
      "Ġcap": 4031,
      "Ġgu": 4032,
      "ibr": 4033,
      "ĠOn": 4034,
      "Ġsignificant": 4035,
      "IZE": 4036,
      "block": 4037,
      "çĶ¨æĪ·": 4038,
      "pose": 4039,
      "Ġmove": 4040,
      "æ²»çĲĨ": 4041,
      "'),Ċ": 4042,
      "è½»": 4043,
      "ä¸ļåĬ¡": 4044,
      "âĶĢ": 4045,
      ".sh": 4046,
      "oder": 4047,
      "spl": 4048,
      "ffff": 4049,
      "Ġmight": 4050,
      "fg": 4051,
      "Ġmessage": 4052,
      "åį°": 4053,
      "éĥ½æĺ¯": 4054,
      "Ġpoints": 4055,
      "ĠCal": 4056,
      "Ġfree": 4057,
      "ĠCAN": 4058,
      "Ġabove": 4059,
      "ERT": 4060,
      "ped": 4061,
      "Dis": 4062,
      "æĦıä¹ī": 4063,
      "ä¸¤ä¸ª": 4064,
      "float": 4065,
      "unsigned": 4066,
      "Ġax": 4067,
      "MT": 4068,
      "ender": 4069,
      "Ġresponse": 4070,
      "weight": 4071,
      "Nodes": 4072,
      "info": 4073,
      "çİ°åľ¨": 4074,
      "çļĦéĩįè¦ģ": 4075,
      "Ġher": 4076,
      "xx": 4077,
      ",o": 4078,
      "Ġinstance": 4079,
      "ek": 4080,
      "Ġdocument": 4081,
      "Ġpossible": 4082,
      "Ġbas": 4083,
      "rict": 4084,
      "Ġmain": 4085,
      "irection": 4086,
      "ä¼°": 4087,
      "View": 4088,
      "lin": 4089,
      "åºĶè¯¥": 4090,
      "ðŁ": 4091,
      "åĽ°": 4092,
      "_ERR": 4093,
      "Ġfunctions": 4094,
      "<li": 4095,
      "Context": 4096,
      ":f": 4097,
      "/p": 4098,
      "ĈĈ": 4099,
      "ï¼Įä»¥": 4100,
      "ideo": 4101,
      "ution": 4102,
      "struction": 4103,
      "olume": 4104,
      "ASS": 4105,
      "]|": 4106,
      "message": 4107,
      "éĢłæĪĲ": 4108,
      "ah": 4109,
      "è§ĦåĪĴ": 4110,
      "Ġindiv": 4111,
      "rupt": 4112,
      "ç¨³å®ļ": 4113,
      "inition": 4114,
      "Ġver": 4115,
      "lood": 4116,
      "Ġprob": 4117,
      "%,": 4118,
      "æĭī": 4119,
      "ĠĠĠĠĠĠĠĠĠĠĠĠĠĠĠĠĠĠ": 4120,
      "AV": 4121,
      "Ġlife": 4122,
      "Ġanother": 4123,
      "atter": 4124,
      "åĪ¶éĢł": 4125,
      "æĤ£èĢħ": 4126,
      "KE": 4127,
      "pha": 4128,
      "æĹ¢": 4129,
      "äºĨè§£": 4130,
      "Ġwant": 4131,
      "Ġassoci": 4132,
      "Ġpatients": 4133,
      "Path": 4134,
      "mut": 4135,
      "Line": 4136,
      "éļıçĿĢ": 4137,
      "âĳ": 4138,
      "_value": 4139,
      "by": 4140,
      "Ġindic": 4141,
      "åĶ®": 4142,
      "logical": 4143,
      "è¿Ŀ": 4144,
      "ĠHowever": 4145,
      "Ġoffset": 4146,
      "éĶĻ": 4147,
      "åħħåĪĨ": 4148,
      "_i": 4149,
      "ĠReg": 4150,
      "kn": 4151,
      "Ġwhe": 4152,
      "æĺ¯åĲ¦": 4153,
      "å¾Īå¤ļ": 4154,
      "åĨ³å®ļ": 4155,
      "mod": 4156,
      "Ġmeans": 4157,
      "Ġfont": 4158,
      "Ġ};Ċ": 4159,
      "éĵ¶è¡Į": 4160,
      "sing": 4161,
      "_index": 4162,
      "_un": 4163,
      "ICAgICAg": 4164,
      "Ġexpression": 4165,
      "ident": 4166,
      "Ġdat": 4167,
      "ites": 4168,
      "çī¹åĪ«": 4169,
      "UB": 4170,
      "arrow": 4171,
      "orage": 4172,
      "rief": 4173,
      "jor": 4174,
      "VVVV": 4175,
      "ai": 4176,
      "Ġobser": 4177,
      "ĠEn": 4178,
      "isk": 4179,
      "ç´§": 4180,
      "ä»»åĬ¡": 4181,
      "Ġphys": 4182,
      "åį´": 4183,
      "Ġlocal": 4184,
      "apt": 4185,
      "_list": 4186,
      "Ġparent": 4187,
      "é»Ħ": 4188,
      "ç»¿": 4189,
      "ocial": 4190,
      "impl": 4191,
      ":!": 4192,
      ")),": 4193,
      "Ġdid": 4194,
      "ĠWhen": 4195,
      "æ¤į": 4196,
      "Ġdefine": 4197,
      "Ġaccess": 4198,
      "Ð½": 4199,
      "Ġstatus": 4200,
      "æ¥": 4201,
      "Ġorgan": 4202,
      "åºŃ": 4203,
      "level": 4204,
      "Ġauto": 4205,
      "Ġsug": 4206,
      ":n": 4207,
      "Ġfeature": 4208,
      "åįĬ": 4209,
      "Ġcompon": 4210,
      "_com": 4211,
      "ĠCont": 4212,
      "è¡¨ç¤º": 4213,
      "Ġpot": 4214,
      "å¸®": 4215,
      "uro": 4216,
      "EP": 4217,
      "æĸ¹æ¡Ī": 4218,
      "ead": 4219,
      "ols": 4220,
      "åĮºåŁŁ": 4221,
      "ä¸Ńåįİ": 4222,
      "ĠOR": 4223,
      "è§Ħæ¨¡": 4224,
      "ä»¥ä¸Ĭ": 4225,
      "_state": 4226,
      "ĠSet": 4227,
      "_x": 4228,
      "æĺŁ": 4229,
      "äººç±»": 4230,
      "æŃ»": 4231,
      "èģĶç½ĳ": 4232,
      "=r": 4233,
      "Ġperiod": 4234,
      "Ġgood": 4235,
      "è§ĦèĮĥ": 4236,
      "ond": 4237,
      "member": 4238,
      "Ġdouble": 4239,
      ",s": 4240,
      "!!": 4241,
      "çĬ¯": 4242,
      "ious": 4243,
      "Ġtypes": 4244,
      "entry": 4245,
      "raction": 4246,
      "section": 4247,
      "èĥ½æºĲ": 4248,
      "æ¼Ķ": 4249,
      "typeof": 4250,
      "ral": 4251,
      "Ġdetail": 4252,
      "ops": 4253,
      "rior": 4254,
      "æ¶ī": 4255,
      "ç»ĥ": 4256,
      "Ġfl": 4257,
      "Math": 4258,
      "Ġ>=": 4259,
      ")},": 4260,
      "Ġsett": 4261,
      "ances": 4262,
      "èµĦæľ¬": 4263,
      "></_>Ċ": 4264,
      "Ġ\\).": 4265,
      "Ġopt": 4266,
      "oto": 4267,
      "Ġplace": 4268,
      "ATA": 4269,
      "gl": 4270,
      "åĨľæĿĳ": 4271,
      "éĢģ": 4272,
      "ï¼Įä¸į": 4273,
      "Ġcomb": 4274,
      "Desc": 4275,
      "db": 4276,
      "ä½Ļ": 4277,
      "éħ¸": 4278,
      "Count": 4279,
      "-item": 4280,
      "Ġhuman": 4281,
      "èµĦäº§": 4282,
      "stit": 4283,
      "Box": 4284,
      "Ġnormal": 4285,
      "ç«ŀäºī": 4286,
      "Result": 4287,
      "overn": 4288,
      "Ġindividual": 4289,
      "Ġavailable": 4290,
      "ï¼İ": 4291,
      "Ġlink": 4292,
      "å¾ħ": 4293,
      "ĉĉĉĉĉĉ": 4294,
      ";if": 4295,
      "Ġteach": 4296,
      "èĥĮ": 4297,
      "Ġ-->Ċ": 4298,
      "ended": 4299,
      "sem": 4300,
      "ffset": 4301,
      "æĬ¥åĳĬ": 4302,
      "node": 4303,
      "æŀ¶": 4304,
      "_file": 4305,
      "Ġke": 4306,
      "por": 4307,
      "Ġrece": 4308,
      "âĢĻt": 4309,
      "_CR": 4310,
      "tex": 4311,
      "ids": 4312,
      "ĠReturn": 4313,
      "ĠGener": 4314,
      "mun": 4315,
      "ze": 4316,
      "perature": 4317,
      "åıĳæĮ¥": 4318,
      "Base": 4319,
      "lem": 4320,
      "å¾Ħ": 4321,
      "å»ºçŃĳ": 4322,
      "vices": 4323,
      "çĶµåŃĲ": 4324,
      "_key": 4325,
      "nection": 4326,
      "äº¤æĺĵ": 4327,
      "Ġhead": 4328,
      "Ġoptions": 4329,
      "It": 4330,
      "ç»Łä¸Ģ": 4331,
      "ULT": 4332,
      ">::": 4333,
      "TER": 4334,
      "ctx": 4335,
      "iversity": 4336,
      "ä¸»ä½ĵ": 4337,
      "gative": 4338,
      "-group": 4339,
      "depend": 4340,
      "location": 4341,
      "Ġpost": 4342,
      "ayout": 4343,
      "ĠTrue": 4344,
      "ibility": 4345,
      "Ġpred": 4346,
      "?:": 4347,
      "Ġdon": 4348,
      "kw": 4349,
      "(-": 4350,
      "è¿Ľåħ¥": 4351,
      "afe": 4352,
      "åĪ©çĽĬ": 4353,
      "å¼ĢæĶ¾": 4354,
      "])Ċ": 4355,
      "oper": 4356,
      "display": 4357,
      "èĻĳ": 4358,
      "æĴŃ": 4359,
      "....": 4360,
      "èĻ½": 4361,
      "éĿŀå¸¸": 4362,
      "false": 4363,
      "ĠFalse": 4364,
      "Ġcharacter": 4365,
      "è¡¨çİ°": 4366,
      "ECT": 4367,
      "ç¨ĭåº¦": 4368,
      "thing": 4369,
      "æĮīçħ§": 4370,
      "Ġimp": 4371,
      "å®£": 4372,
      "vis": 4373,
      "æ³ķéĻ¢": 4374,
      "AQ": 4375,
      "åĪ»": 4376,
      "oding": 4377,
      "èģĮä¸ļ": 4378,
      "acket": 4379,
      "++)": 4380,
      ",ä¸º": 4381,
      "åħ¬åħ±": 4382,
      "çĶļ": 4383,
      "Ġwrite": 4384,
      "ä¼¤": 4385,
      "ä»¥ä¸ĭ": 4386,
      "ql": 4387,
      "urther": 4388,
      "Ġsingle": 4389,
      "æī¾": 4390,
      "Ġproblems": 4391,
      ".con": 4392,
      "éķĩ": 4393,
      "Ġeng": 4394,
      "ounter": 4395,
      "_AD": 4396,
      "Ġ\\).ĊĊ": 4397,
      "System": 4398,
      "è¿ĲåĬ¨": 4399,
      "Ġsl": 4400,
      "olean": 4401,
      "Ġder": 4402,
      "Ġrequired": 4403,
      "Ġday": 4404,
      "Number": 4405,
      "Ġrow": 4406,
      "åİŁåĽł": 4407,
      "Ġrest": 4408,
      "izer": 4409,
      "ands": 4410,
      "Ġconditions": 4411,
      "_param": 4412,
      "ĠStr": 4413,
      "SET": 4414,
      "label": 4415,
      "Ġvalid": 4416,
      "ACK": 4417,
      "è´¸": 4418,
      "ä¹°": 4419,
      "ready": 4420,
      "æİªæĸ½": 4421,
      "è¯Ħä»·": 4422,
      "IE": 4423,
      "_MASK": 4424,
      "FT": 4425,
      "åįĥ": 4426,
      ".D": 4427,
      "indows": 4428,
      "çĲĨè§£": 4429,
      "update": 4430,
      "_PP": 4431,
      "Ġlearning": 4432,
      "pecial": 4433,
      "Ġdisplay": 4434,
      "Pl": 4435,
      "omic": 4436,
      "ĠInd": 4437,
      "leaf": 4438,
      "Ġdevice": 4439,
      "èĦĳ": 4440,
      "oms": 4441,
      "cdot": 4442,
      "Student": 4443,
      "Ġcomplex": 4444,
      "åĽ½åĨħ": 4445,
      "space": 4446,
      "alle": 4447,
      "_CL": 4448,
      ">&": 4449,
      "omen": 4450,
      "éģ¿": 4451,
      "bit": 4452,
      "imer": 4453,
      ".append": 4454,
      "åĢŁ": 4455,
      "æĮĩå¯¼": 4456,
      "èĹ": 4457,
      "Ġide": 4458,
      "Ġalign": 4459,
      "ithm": 4460,
      "plied": 4461,
      "(var": 4462,
      "Ġintegr": 4463,
      "ç¢³": 4464,
      "ording": 4465,
      "ĠInter": 4466,
      "body": 4467,
      "andler": 4468,
      "Ġtimes": 4469,
      "igger": 4470,
      "=!": 4471,
      "orth": 4472,
      "FD": 4473,
      "Ġthink": 4474,
      "Ġ*)": 4475,
      "=>": 4476,
      "ĠLe": 4477,
      "(__": 4478,
      "Ġterms": 4479,
      "oot": 4480,
      "]\\": 4481,
      "äººä»¬": 4482,
      "(o": 4483,
      "Ġactiv": 4484,
      "Ġdescrib": 4485,
      "Ġeither": 4486,
      "éĩįå¤§": 4487,
      "è®¨": 4488,
      "mine": 4489,
      "Buffer": 4490,
      "<td": 4491,
      "ĠĠĠĠĠĠĠĠĠĠĠĠĠĠĠĠĠĠĠĠ": 4492,
      "field": 4493,
      "cer": 4494,
      "æīĺ": 4495,
      "ector": 4496,
      "æĦıè¯Ĩ": 4497,
      "æ±ī": 4498,
      "Ġdepend": 4499,
      "\"],": 4500,
      ")?": 4501,
      "*/Ċ": 4502,
      "NS": 4503,
      "Model": 4504,
      "Ġrate": 4505,
      "Ġinterest": 4506,
      "ç»Ŀ": 4507,
      "Property": 4508,
      "ĉint": 4509,
      "è¿½": 4510,
      "vest": 4511,
      "çŃĶ": 4512,
      "ills": 4513,
      "sm": 4514,
      "ÑĢ": 4515,
      "Ġconcept": 4516,
      "Ġclear": 4517,
      "Ġstandard": 4518,
      "Le": 4519,
      "ĠGet": 4520,
      "æĸĹ": 4521,
      "ä¼¼": 4522,
      "anch": 4523,
      "imary": 4524,
      "_ID": 4525,
      "Ġgraph": 4526,
      "pc": 4527,
      "Ġansw": 4528,
      "\").": 4529,
      "æ³¨æĦı": 4530,
      "alf": 4531,
      "Ġproject": 4532,
      "è¿ĺæĺ¯": 4533,
      "ury": 4534,
      "ASE": 4535,
      "\"),Ċ": 4536,
      "ograph": 4537,
      "Ġchanges": 4538,
      "adata": 4539,
      "/*Ċ": 4540,
      "ä¿ĿéĻ©": 4541,
      "Ġcolum": 4542,
      "Ġâ": 4543,
      "ias": 4544,
      "Ad": 4545,
      "idence": 4546,
      "åĨ²": 4547,
      "Trans": 4548,
      "inue": 4549,
      "Ġpy": 4550,
      "Ġfil": 4551,
      "like": 4552,
      "cos": 4553,
      "è¯¯": 4554,
      "Ġcorre": 4555,
      "æłĳ": 4556,
      "ogn": 4557,
      "éĿł": 4558,
      "BB": 4559,
      "PR": 4560,
      "Ġlanguage": 4561,
      "ç¿": 4562,
      "};Ċ": 4563,
      "Ġold": 4564,
      "ech": 4565,
      "tx": 4566,
      "æĶ¶åħ¥": 4567,
      "ĠDef": 4568,
      "Ġenvironment": 4569,
      "åģ¿": 4570,
      "ynam": 4571,
      "buf": 4572,
      "è¡¡": 4573,
      "åĪĳ": 4574,
      "Ġplay": 4575,
      "Ġsquare": 4576,
      "ä»·æł¼": 4577,
      ",d": 4578,
      "éģĹ": 4579,
      "Ġsuccess": 4580,
      "Ġlabel": 4581,
      "æ¨¡åŀĭ": 4582,
      "%E": 4583,
      "ç»ıéªĮ": 4584,
      "(function": 4585,
      "æĽ´å¤ļ": 4586,
      "arr": 4587,
      "åįļ": 4588,
      "ĠWh": 4589,
      "From": 4590,
      "omain": 4591,
      "());Ċ": 4592,
      "Ġimpro": 4593,
      "é²": 4594,
      "########": 4595,
      "ĠOF": 4596,
      "Ġprom": 4597,
      "çī¹å¾ģ": 4598,
      "Ġ},": 4599,
      "hema": 4600,
      "çī¹çĤ¹": 4601,
      "ä¸ĥ": 4602,
      "èĽ": 4603,
      "è´«": 4604,
      "å½Ĵ": 4605,
      "Ġge": 4606,
      "dr": 4607,
      "åĩıå°ĳ": 4608,
      "Ġeas": 4609,
      "rade": 4610,
      "alk": 4611,
      "çľ¼": 4612,
      "tings": 4613,
      "æĸĩä»¶": 4614,
      "Pr": 4615,
      "Ġunderstanding": 4616,
      "eps": 4617,
      "vec": 4618,
      "ĠEar": 4619,
      "âĢĵ": 4620,
      "Lo": 4621,
      "Ġ(*": 4622,
      "Ġ(Ċ": 4623,
      "ling": 4624,
      "Ġraise": 4625,
      "SH": 4626,
      "False": 4627,
      "_I": 4628,
      "ç¯": 4629,
      "ĠPer": 4630,
      "éĻįä½İ": 4631,
      "å»¶": 4632,
      "Ġmap": 4633,
      "ä»»ä½ķ": 4634,
      "çĮ®": 4635,
      "Ġhy": 4636,
      "padding": 4637,
      "Ġcert": 4638,
      "_sh": 4639,
      "Ġregister": 4640,
      "vm": 4641,
      "ĠPar": 4642,
      "æ¬§": 4643,
      "toc": 4644,
      "pan": 4645,
      "PP": 4646,
      "Ġstill": 4647,
      "alar": 4648,
      "oh": 4649,
      "property": 4650,
      "æĹ¶åĢĻ": 4651,
      "æĸ¹åĲĳ": 4652,
      "æ°§": 4653,
      "çĸ¾": 4654,
      "åĲ¬": 4655,
      "Ġ::": 4656,
      "fe": 4657,
      "structor": 4658,
      "ively": 4659,
      "æĹ¶æľŁ": 4660,
      "èīºæľ¯": 4661,
      "è¿Ĳè¡Į": 4662,
      "side": 4663,
      "ĠAnd": 4664,
      "Ġfood": 4665,
      "Select": 4666,
      "_TR": 4667,
      "bug": 4668,
      "éĿ©åĳ½": 4669,
      "Loc": 4670,
      "ĠEng": 4671,
      "Ġstructure": 4672,
      "Ġamount": 4673,
      "Image": 4674,
      "ESS": 4675,
      "åĬ±": 4676,
      "icle": 4677,
      "Ġsince": 4678,
      "ä¹Ŀ": 4679,
      ".assert": 4680,
      "Ġparticular": 4681,
      "åĲ¯": 4682,
      ",æĪĳä»¬": 4683,
      "è®¤è¯Ĩ": 4684,
      "çıŃ": 4685,
      "Ġbehav": 4686,
      "HT": 4687,
      "åŁºäºİ": 4688,
      "Ġcare": 4689,
      "Ġprovided": 4690,
      "arning": 4691,
      "icy": 4692,
      "II": 4693,
      "=True": 4694,
      "fs": 4695,
      "-top": 4696,
      "ĠSome": 4697,
      "With": 4698,
      "Width": 4699,
      "æ¯į": 4700,
      "ov": 4701,
      "_string": 4702,
      "olt": 4703,
      "æĢ¥": 4704,
      "æ±½": 4705,
      "hover": 4706,
      "_U": 4707,
      "typedef": 4708,
      "ĠPl": 4709,
      "ategory": 4710,
      "ĠData": 4711,
      "Ġflow": 4712,
      "ported": 4713,
      "idget": 4714,
      "Ġroot": 4715,
      "çļĦéĹ®é¢ĺ": 4716,
      "ene": 4717,
      "Ġdr": 4718,
      "__(": 4719,
      "Point": 4720,
      "Ġsurface": 4721,
      "```ĊĊ": 4722,
      "uple": 4723,
      "ä¿Ŀè¯ģ": 4724,
      "Ġsaid": 4725,
      "åıªæľī": 4726,
      "lim": 4727,
      "au": 4728,
      "ï¼Įè¿Ļ": 4729,
      "Ġdevelopment": 4730,
      "Input": 4731,
      "èµĦéĩĳ": 4732,
      "-n": 4733,
      "Ġpattern": 4734,
      "Ġbel": 4735,
      "ĠAll": 4736,
      "\\\":": 4737,
      "Ġport": 4738,
      "attern": 4739,
      "Ġrole": 4740,
      "leg": 4741,
      "Ġmathem": 4742,
      "UG": 4743,
      "ĠTIM": 4744,
      "Ġappe": 4745,
      "SL": 4746,
      "_tr": 4747,
      "åĪĽéĢł": 4748,
      "Ġcorrect": 4749,
      "èĭ¥": 4750,
      "<p": 4751,
      "Ġdig": 4752,
      "IX": 4753,
      "opyright": 4754,
      "CM": 4755,
      "çĽ®çļĦ": 4756,
      "ĠBy": 4757,
      "Ġcour": 4758,
      "ä¹ĭä¸Ģ": 4759,
      "Ġexist": 4760,
      "river": 4761,
      "âĶĢâĶĢ": 4762,
      "ending": 4763,
      "Query": 4764,
      ".create": 4765,
      "éĵģ": 4766,
      "çĵ": 4767,
      "çĩ": 4768,
      "Ġplan": 4769,
      "ilt": 4770,
      "Ġ(\"": 4771,
      "ä¸°": 4772,
      "Ed": 4773,
      "alt": 4774,
      "ĠSer": 4775,
      "rodu": 4776,
      "Ġdisease": 4777,
      "å¹´çļĦ": 4778,
      "olve": 4779,
      "ounds": 4780,
      "HR": 4781,
      "---ĊĊ": 4782,
      "æľĿ": 4783,
      "Ġfa": 4784,
      "ĠPh": 4785,
      "-size": 4786,
      "Ġfour": 4787,
      "-right": 4788,
      "AME": 4789,
      "uture": 4790,
      "äº²": 4791,
      "èĴ": 4792,
      ".__": 4793,
      "âĢĿçļĦ": 4794,
      "sum": 4795,
      "Ġdep": 4796,
      "');Ċ": 4797,
      "grad": 4798,
      "Partic": 4799,
      "ĠĠĠĠĠĠĠĠĠĠĠĠĊ": 4800,
      "ĠCON": 4801,
      "ional": 4802,
      "xl": 4803,
      "query": 4804,
      "Ġmargin": 4805,
      "EE": 4806,
      "last": 4807,
      "åıĸå¾Ĺ": 4808,
      "pub": 4809,
      "tect": 4810,
      ".$": 4811,
      "_mod": 4812,
      "åģĩ": 4813,
      "pack": 4814,
      "ä¸¥éĩį": 4815,
      "Ġabs": 4816,
      ")\\": 4817,
      "================================": 4818,
      "Ġlaw": 4819,
      "Function": 4820,
      "çĬ¶æĢģ": 4821,
      "](#": 4822,
      "Ġvector": 4823,
      "/b": 4824,
      "èĪª": 4825,
      "ä¾µ": 4826,
      "();ĊĊ": 4827,
      "+\"": 4828,
      "ends": 4829,
      "Ġsum": 4830,
      "éĩıçļĦ": 4831,
      "Attribute": 4832,
      "Ġdue": 4833,
      "aper": 4834,
      "Ġshort": 4835,
      "Ġtemperature": 4836,
      "Ġsimilar": 4837,
      "Ġschool": 4838,
      "fd": 4839,
      "OG": 4840,
      "_ptr": 4841,
      "internalNodes": 4842,
      "leafValues": 4843,
      "æķ£": 4844,
      "åĵª": 4845,
      "æĽ´åĬł": 4846,
      "Ġes": 4847,
      "æİĮ": 4848,
      "API": 4849,
      "]]": 4850,
      "Mode": 4851,
      "cs": 4852,
      "èĭı": 4853,
      "Be": 4854,
      "scale": 4855,
      "istance": 4856,
      "typ": 4857,
      ",åħ¶": 4858,
      "webkit": 4859,
      "æľīçļĦ": 4860,
      "çĶ³è¯·": 4861,
      "Ġspecies": 4862,
      "adow": 4863,
      ")|": 4864,
      "~~": 4865,
      "atio": 4866,
      "ç¦ı": 4867,
      "Ġexcept": 4868,
      "rl": 4869,
      "æīįèĥ½": 4870,
      "åĪ¶å®ļ": 4871,
      "Ð¾Ð": 4872,
      "NT": 4873,
      "æľºåħ³": 4874,
      "Ġmatrix": 4875,
      "Ġaddress": 4876,
      "Ġweight": 4877,
      "Ġdiff": 4878,
      "Ġbuffer": 4879,
      "ä¹Łæĺ¯": 4880,
      ".type": 4881,
      "aving": 4882,
      "EG": 4883,
      "FR": 4884,
      "transform": 4885,
      "udio": 4886,
      "Ġpercent": 4887,
      "Ġmut": 4888,
      "bi": 4889,
      "è°ĥæķ´": 4890,
      "lean": 4891,
      "brief": 4892,
      "erc": 4893,
      "Ġens": 4894,
      ",ä½¿": 4895,
      "=i": 4896,
      "ä¼ĺåĬ¿": 4897,
      "UD": 4898,
      "åłĤ": 4899,
      "Ġsuggest": 4900,
      "PD": 4901,
      "stro": 4902,
      "Ġformat": 4903,
      "Frame": 4904,
      "Ġ<=": 4905,
      "æķĪæŀľ": 4906,
      "çĽĳçĿ£": 4907,
      "ging": 4908,
      "Ġpub": 4909,
      "wise": 4910,
      "Ġdraw": 4911,
      "cat": 4912,
      "éķ¿æľŁ": 4913,
      "Ġelements": 4914,
      "(v": 4915,
      "Ġiss": 4916,
      "åĲĪçĲĨ": 4917,
      ".âĢĿ": 4918,
      "éĢĢ": 4919,
      "æ±ĩ": 4920,
      "atory": 4921,
      "vector": 4922,
      "-bottom": 4923,
      ")ĊĊĊ": 4924,
      "cell": 4925,
      "_pre": 4926,
      "uck": 4927,
      "ored": 4928,
      "ç¾¤ä¼Ĺ": 4929,
      "ĠMath": 4930,
      "ä¿ĿæĮģ": 4931,
      "Ġsuper": 4932,
      "/d": 4933,
      "-e": 4934,
      "control": 4935,
      "Ġoriginal": 4936,
      "Ext": 4937,
      "è¯Ńè¨Ģ": 4938,
      "join": 4939,
      "ĠRCC": 4940,
      ")</": 4941,
      "çĶļèĩ³": 4942,
      "Ġwhether": 4943,
      "æľªæĿ¥": 4944,
      "Ġvarious": 4945,
      "è®¸å¤ļ": 4946,
      ".name": 4947,
      "ĉu": 4948,
      "Request": 4949,
      "ãĢĤâĢĿ": 4950,
      "auto": 4951,
      "æĿİ": 4952,
      "No": 4953,
      "Style": 4954,
      "_TYPE": 4955,
      "_FL": 4956,
      "uest": 4957,
      "Ġanalysis": 4958,
      "!Ċ": 4959,
      "';Ċ": 4960,
      "Mem": 4961,
      "æ³Ľ": 4962,
      "ä¾ĭå¦Ĥ": 4963,
      "è´·": 4964,
      "itude": 4965,
      "lish": 4966,
      "æŃ¦": 4967,
      "Ġlevels": 4968,
      "Ġfactor": 4969,
      "Ġ[Ċ": 4970,
      "ĉcase": 4971,
      "åª": 4972,
      "ATION": 4973,
      "plications": 4974,
      "ird": 4975,
      "orn": 4976,
      "summary": 4977,
      "Ġforce": 4978,
      "Ġpotential": 4979,
      "Ġmass": 4980,
      "ĠAd": 4981,
      "æĭŁ": 4982,
      "æĦ¿": 4983,
      "eded": 4984,
      "alloc": 4985,
      "translation": 4986,
      "cur": 4987,
      "ection": 4988,
      "Ġaffect": 4989,
      "outh": 4990,
      "èĦ±": 4991,
      "å·¦": 4992,
      "ursor": 4993,
      "hs": 4994,
      "ï¼Įä»İ": 4995,
      "Ġ()": 4996,
      "tle": 4997,
      "tual": 4998,
      "BC": 4999,
      "å®Ī": 5000,
      "ause": 5001,
      "Ġtask": 5002,
      "ÂłÂł": 5003,
      "éĤ£ä¹Ī": 5004,
      "fficient": 5005,
      "èĢĥèĻĳ": 5006,
      "ĠST": 5007,
      "ĠAp": 5008,
      ".T": 5009,
      "Per": 5010,
      "FFFF": 5011,
      "åĳ³": 5012,
      "Ġfew": 5013,
      "åºĬ": 5014,
      "åľŁåľ°": 5015,
      "Ġpage": 5016,
      "opacity": 5017,
      "AND": 5018,
      "Ġmemory": 5019,
      "Ġimplement": 5020,
      "åĮĹäº¬": 5021,
      "Ġland": 5022,
      "ometry": 5023,
      "Ġtre": 5024,
      "ĠAt": 5025,
      "å¥Ĺ": 5026,
      "æĿĥåĪ©": 5027,
      "ascript": 5028,
      "ä¹ĭéĹ´çļĦ": 5029,
      "è¶ĭ": 5030,
      "è®¢": 5031,
      "All": 5032,
      "åĮ»çĸĹ": 5033,
      "æŀĦå»º": 5034,
      "izing": 5035,
      "known": 5036,
      ".value": 5037,
      "-icon": 5038,
      "-width": 5039,
      "Ġsimple": 5040,
      "è¯Ĺ": 5041,
      "pm": 5042,
      "iate": 5043,
      "Ġtoo": 5044,
      "Ġblood": 5045,
      "æĹłæ³ķ": 5046,
      "(C": 5047,
      "ration": 5048,
      "iles": 5049,
      "_EX": 5050,
      "å¾ª": 5051,
      "Ñģ": 5052,
      "éģĩ": 5053,
      "ERS": 5054,
      "Ġstep": 5055,
      "Ġfrequ": 5056,
      "Ġadv": 5057,
      "tw": 5058,
      "ogle": 5059,
      "éĴĪå¯¹": 5060,
      "Ġpur": 5061,
      "ĠSD": 5062,
      ">,": 5063,
      "Ġconstant": 5064,
      "igure": 5065,
      "Ġmultiple": 5066,
      "ĠBut": 5067,
      "Ġsizeof": 5068,
      "ordin": 5069,
      "ationship": 5070,
      "ITY": 5071,
      "sd": 5072,
      "èŃ": 5073,
      "OCK": 5074,
      "RT": 5075,
      "ributes": 5076,
      "-sh": 5077,
      "æ´¾": 5078,
      "åħ³æ³¨": 5079,
      "atural": 5080,
      "[]": 5081,
      "æĶ»": 5082,
      "ĠExample": 5083,
      "bra": 5084,
      "ç¼©": 5085,
      "éĻĦ": 5086,
      "Ġmot": 5087,
      "ump": 5088,
      "Ġalways": 5089,
      "unk": 5090,
      "Aut": 5091,
      "PORT": 5092,
      "Ã©": 5093,
      "End": 5094,
      "æĺ¯åľ¨": 5095,
      "Ġframe": 5096,
      "orig": 5097,
      "Ġpositive": 5098,
      "å§Ķåĳĺ": 5099,
      "æ£ĢæŁ¥": 5100,
      "istic": 5101,
      "ML": 5102,
      "IST": 5103,
      "uses": 5104,
      "æĺİæĺ¾": 5105,
      "ade": 5106,
      "imation": 5107,
      "ĠID": 5108,
      "æ¦Ĥå¿µ": 5109,
      "queue": 5110,
      "_FB": 5111,
      "fessor": 5112,
      "));": 5113,
      "atform": 5114,
      "Ġcho": 5115,
      "ories": 5116,
      "Ġinternal": 5117,
      "çĻ»": 5118,
      "*/": 5119,
      "ipant": 5120,
      "click": 5121,
      "Ġalong": 5122,
      "qqqq": 5123,
      "frame": 5124,
      "æĶ¹åıĺ": 5125,
      "just": 5126,
      "Ġgovern": 5127,
      "----------------------------------------------------------------": 5128,
      "=None": 5129,
      "æĺ¾ç¤º": 5130,
      "Ġpress": 5131,
      "Ġproperty": 5132,
      "\\:": 5133,
      "è°Ī": 5134,
      "Ġ\\[Ċ": 5135,
      "_.": 5136,
      "åıĹåĪ°": 5137,
      "ours": 5138,
      "thers": 5139,
      "length": 5140,
      "èįī": 5141,
      "ĠDis": 5142,
      "Ġeduc": 5143,
      "Offset": 5144,
      "_TIM": 5145,
      "gor": 5146,
      "è¾ĳ": 5147,
      "Ent": 5148,
      "ĠUniversity": 5149,
      "olute": 5150,
      "æķĪçİĩ": 5151,
      "æĸĩæĺİ": 5152,
      "å¸®åĬ©": 5153,
      "ival": 5154,
      "ä»¥æĿ¥": 5155,
      "ï¼Įå¯¹": 5156,
      "åİĤ": 5157,
      "ading": 5158,
      "CO": 5159,
      "å°ģ": 5160,
      "ç¥¨": 5161,
      "sin": 5162,
      "utils": 5163,
      "å©": 5164,
      "root": 5165,
      "local": 5166,
      "Ġ[\"": 5167,
      "Ġair": 5168,
      "åı³": 5169,
      "å¿ĥçĲĨ": 5170,
      "Default": 5171,
      "________": 5172,
      "-de": 5173,
      "çļ®": 5174,
      "åıĭ": 5175,
      "Ġ});Ċ": 5176,
      "loy": 5177,
      "gether": 5178,
      "èĻļ": 5179,
      "VAL": 5180,
      "Ġtemplate": 5181,
      "Ġmethods": 5182,
      "ä¸įåĲĮçļĦ": 5183,
      "yl": 5184,
      "çĺ": 5185,
      "Ġcomplete": 5186,
      "book": 5187,
      "åŁ¹è®Ń": 5188,
      "Ġ``": 5189,
      "Ġprevious": 5190,
      "ä¸ĸçºª": 5191,
      "è®¾æĸ½": 5192,
      "ters": 5193,
      "Ġformula": 5194,
      "=c": 5195,
      "aves": 5196,
      "å®Ĺ": 5197,
      "å®Ŀ": 5198,
      "å¢ŀå¼º": 5199,
      "çģµ": 5200,
      "Ġseveral": 5201,
      "é¸": 5202,
      "_str": 5203,
      "ç±»åŀĭ": 5204,
      "Ġpadding": 5205,
      "};": 5206,
      "æĿ¥è¯´": 5207,
      "æĽ¾": 5208,
      "description": 5209,
      "æĪĲåĬŁ": 5210,
      "fc": 5211,
      "each": 5212,
      "ones": 5213,
      "é¡º": 5214,
      "ths": 5215,
      "æ´²": 5216,
      "cor": 5217,
      "[e": 5218,
      "ç¬Ķ": 5219,
      "Ġcost": 5220,
      "ialog": 5221,
      "Start": 5222,
      "Ġcover": 5223,
      "ixel": 5224,
      "my": 5225,
      "GB": 5226,
      "anager": 5227,
      "javascript": 5228,
      "instance": 5229,
      "IFT": 5230,
      "split": 5231,
      "Ġcult": 5232,
      "çĽĸ": 5233,
      "sup": 5234,
      ",å°±": 5235,
      "Ġlimit": 5236,
      "ĠCan": 5237,
      "åªĴ": 5238,
      "base": 5239,
      "Ġos": 5240,
      "æĢİ": 5241,
      "Ġunit": 5242,
      "çī©è´¨": 5243,
      "é£ŀ": 5244,
      "container": 5245,
      "Ġdim": 5246,
      "Ġbelow": 5247,
      "Ġmask": 5248,
      "lam": 5249,
      "_count": 5250,
      "Ġword": 5251,
      "ĠEarth": 5252,
      "æĪĲæŀľ": 5253,
      "éĺħ": 5254,
      "!=": 5255,
      "éĢı": 5256,
      "ĠTest": 5257,
      "Ġassociated": 5258,
      "ä¹ĭåĲİ": 5259,
      "ĠValue": 5260,
      "mission": 5261,
      "_REG": 5262,
      "ĠOr": 5263,
      "Ġable": 5264,
      "éĩįè¦ģçļĦ": 5265,
      "Ġquestion": 5266,
      "board": 5267,
      "Ġwords": 5268,
      "_SH": 5269,
      "å¸Į": 5270,
      "Options": 5271,
      "ĠIS": 5272,
      "Ġbest": 5273,
      "è¶ħè¿ĩ": 5274,
      "Ġearly": 5275,
      "Ġbro": 5276,
      "Ġfinal": 5277,
      ")^": 5278,
      "æŃ£ç¡®": 5279,
      "ORM": 5280,
      "Ġtreatment": 5281,
      "Ġgroups": 5282,
      "Ġred": 5283,
      "-link": 5284,
      "TRL": 5285,
      "åģľ": 5286,
      "What": 5287,
      "ç½Ĺ": 5288,
      "iding": 5289,
      "Ġgre": 5290,
      "Ġtransform": 5291,
      "src": 5292,
      "ĠType": 5293,
      "Ġess": 5294,
      "Ġcrit": 5295,
      "Group": 5296,
      "token": 5297,
      "èĻ½çĦ¶": 5298,
      "era": 5299,
      "æĽ²": 5300,
      "æ¸Ĳ": 5301,
      "gment": 5302,
      "ĠNo": 5303,
      "Block": 5304,
      "net": 5305,
      "Ġrisk": 5306,
      "bm": 5307,
      "mark": 5308,
      ",ä¸Ģ": 5309,
      "å¯¹è±¡": 5310,
      "quality": 5311,
      "èģĶç³»": 5312,
      "èıĮ": 5313,
      "(),Ċ": 5314,
      "Ġleast": 5315,
      "cy": 5316,
      "{content": 5317,
      ",f": 5318,
      "ĠGPIO": 5319,
      "èĨľ": 5320,
      "ä½ĵçļĦ": 5321,
      "çŃ¾": 5322,
      "'\\": 5323,
      "æ··": 5324,
      "ĠIs": 5325,
      "Ġwindow": 5326,
      "verage": 5327,
      "Ġmus": 5328,
      ":**ĊĊ": 5329,
      "method": 5330,
      "æĭĽ": 5331,
      "eno": 5332,
      "-\\": 5333,
      "tes": 5334,
      "Ġlower": 5335,
      "bc": 5336,
      "Ġ>>": 5337,
      "Ġrelative": 5338,
      "Ġlater": 5339,
      "éĨ": 5340,
      "vari": 5341,
      "Ġbetter": 5342,
      "/t": 5343,
      "FO": 5344,
      "(re": 5345,
      "ç»į": 5346,
      "å®Įåħ¨": 5347,
      "<a": 5348,
      "Ġtransp": 5349,
      "xA": 5350,
      "Ġhttp": 5351,
      "Ġmill": 5352,
      "è®¿": 5353,
      "é¦ĸåħĪ": 5354,
      "Ġsoftware": 5355,
      "istics": 5356,
      "å¤įæĿĤ": 5357,
      "Ġanswer": 5358,
      "position": 5359,
      "Ġargs": 5360,
      "ç»ĦæĪĲ": 5361,
      "button": 5362,
      "çĽ¸å¯¹": 5363,
      "æ£Ģæµĭ": 5364,
      "Ġsolution": 5365,
      "Ġdesign": 5366,
      "çīĮ": 5367,
      "ACE": 5368,
      "åı¥": 5369,
      "ä¸įä»ħ": 5370,
      "_AR": 5371,
      "åŃ¦ç§ĳ": 5372,
      "only": 5373,
      "<tr": 5374,
      "asing": 5375,
      "ores": 5376,
      "ĊĊĊĊĊĊĊĊ": 5377,
      "pri": 5378,
      "Ġspeed": 5379,
      "ty": 5380,
      "å·¨": 5381,
      "FL": 5382,
      "uilt": 5383,
      "Ġzero": 5384,
      "æĺ¯ä¸Ģä¸ª": 5385,
      "Ġactivity": 5386,
      "Ġworks": 5387,
      "ç»©": 5388,
      ".B": 5389,
      "èµ·æĿ¥": 5390,
      "_mask": 5391,
      "Ġsystems": 5392,
      "MM": 5393,
      "Child": 5394,
      "Ġbook": 5395,
      ".j": 5396,
      "check": 5397,
      "Ġcenter": 5398,
      "_X": 5399,
      "ultip": 5400,
      "Ġdeg": 5401,
      "lev": 5402,
      "äºĴèģĶç½ĳ": 5403,
      "Ġmajor": 5404,
      "è´Łè´£": 5405,
      "_config": 5406,
      "|Ċ": 5407,
      "Ġtorch": 5408,
      "!important": 5409,
      "çĨŁ": 5410,
      ".call": 5411,
      "sel": 5412,
      "_of": 5413,
      "å»ºè®®": 5414,
      "cp": 5415,
      ";return": 5416,
      "Ġagainst": 5417,
      "æĮĩåĩº": 5418,
      "JS": 5419,
      "aps": 5420,
      "ĠLL": 5421,
      "ĠLet": 5422,
      "fn": 5423,
      "éĺ»": 5424,
      "omin": 5425,
      "do": 5426,
      "tsd": 5427,
      "åıĬæĹ¶": 5428,
      "è·Ŀ": 5429,
      "`,": 5430,
      "ç§ģ": 5431,
      "yles": 5432,
      "ĠUSB": 5433,
      "æĢ§åĴĮ": 5434,
      "Ġfin": 5435,
      "åıįåºĶ": 5436,
      "amed": 5437,
      "Ġshape": 5438,
      "[t": 5439,
      "[n": 5440,
      "\"}.": 5441,
      "éª¨": 5442,
      "Ġ['": 5443,
      "ĠFunction": 5444,
      "èĩªçĶ±": 5445,
      "ä¼Ł": 5446,
      "åķĨä¸ļ": 5447,
      "eft": 5448,
      "erg": 5449,
      "æ±¡æŁĵ": 5450,
      "Ġscient": 5451,
      "Ġhigher": 5452,
      "Participant": 5453,
      "ipe": 5454,
      "ĠAN": 5455,
      "\");": 5456,
      "ĠUse": 5457,
      "ĠCl": 5458,
      "çİ°è±¡": 5459,
      "_a": 5460,
      ":\"\\": 5461,
      "Wh": 5462,
      "Ġlines": 5463,
      "æĹħ": 5464,
      "Ġcause": 5465,
      "Ġbegin": 5466,
      "EST": 5467,
      "edia": 5468,
      "]),": 5469,
      "ç¬¦åĲĪ": 5470,
      "ensions": 5471,
      "blem": 5472,
      "Ġrgba": 5473,
      "å³": 5474,
      "äº¤éĢļ": 5475,
      "ĠOp": 5476,
      "aging": 5477,
      "TP": 5478,
      "ication": 5479,
      "ĠĠĠĠĠĠĠĠĠĠĠĠĠĠĠĠĠĠĠĠĠĠĠĠ": 5480,
      "è¿ĲçĶ¨": 5481,
      "ĠSee": 5482,
      "ĠĠĠĠĠĠĠĠĠĠĠĠĠĠĠĠĠĠĠĠĠĠĠĠĠ": 5483,
      "AGE": 5484,
      "èĹı": 5485,
      "Ġareas": 5486,
      "(g": 5487,
      "è¯Ħä¼°": 5488,
      ">.": 5489,
      "èŃ¦": 5490,
      "åıĬåħ¶": 5491,
      "aint": 5492,
      "CTION": 5493,
      "Ġsom": 5494,
      "è½¯ä»¶": 5495,
      "fix": 5496,
      "Ġturn": 5497,
      "cal": 5498,
      "å®¶åºŃ": 5499,
      "è£ģ": 5500,
      "ached": 5501,
      "+=": 5502,
      "Ġpack": 5503,
      "Ġcases": 5504,
      "osis": 5505,
      "acing": 5506,
      "actor": 5507,
      "æĿŁ": 5508,
      "çĽĳç®¡": 5509,
      "è¯Ĭ": 5510,
      "åį¡": 5511,
      "Link": 5512,
      "json": 5513,
      "åħ±äº§": 5514,
      "ought": 5515,
      "Ġfilter": 5516,
      "å·¥åħ·": 5517,
      "Ġhapp": 5518,
      "Aw": 5519,
      "Ġalready": 5520,
      "Filter": 5521,
      "æ±½è½¦": 5522,
      "ä¼ļè®®": 5523,
      "kind": 5524,
      "ç¡¬": 5525,
      "æĤ¨": 5526,
      "Ġsocial": 5527,
      "reference": 5528,
      "./": 5529,
      "iddle": 5530,
      "=d": 5531,
      "èĩªèº«": 5532,
      "ORD": 5533,
      "pare": 5534,
      ")return": 5535,
      "_len": 5536,
      "OUT": 5537,
      "Date": 5538,
      "é»ĳ": 5539,
      "çĤİ": 5540,
      "çļĦå¤§": 5541,
      "å¨ģ": 5542,
      "Ġdistance": 5543,
      "gg": 5544,
      "éĩĩåıĸ": 5545,
      "erved": 5546,
      "ĉĠĠĠ": 5547,
      "heet": 5548,
      "é©¬åħĭ": 5549,
      "Ġdone": 5550,
      "ECK": 5551,
      "Source": 5552,
      "_CO": 5553,
      "Ġconnect": 5554,
      "ided": 5555,
      "Ġ..": 5556,
      "sole": 5557,
      "Ġ]": 5558,
      "Ġfull": 5559,
      "Ġchannel": 5560,
      "WR": 5561,
      "Ġbox": 5562,
      "Ġmodule": 5563,
      "Not": 5564,
      "ently": 5565,
      "Ġfail": 5566,
      "Ġexpress": 5567,
      "/w": 5568,
      ",l": 5569,
      "Ġscale": 5570,
      "è°ĥæŁ¥": 5571,
      "SI": 5572,
      "DD": 5573,
      "rypt": 5574,
      "Ġnegative": 5575,
      "Ġspecial": 5576,
      "Ġiter": 5577,
      "Ġage": 5578,
      "next": 5579,
      "æ·±åħ¥": 5580,
      "Ġdetermin": 5581,
      "Ġquant": 5582,
      "Ġclose": 5583,
      "ĠADC": 5584,
      "ä¸įåı¯": 5585,
      "èĩªåĬ¨": 5586,
      "Ġfactors": 5587,
      "çļĦåŁºç¡Ģ": 5588,
      "Pre": 5589,
      "åĪ°äºĨ": 5590,
      "éĽ¶": 5591,
      "åĨ·": 5592,
      "_SIZE": 5593,
      "ç»´æĬ¤": 5594,
      "orem": 5595,
      "apping": 5596,
      "reshold": 5597,
      "option": 5598,
      "stream": 5599,
      "å¼±": 5600,
      "Ġuntil": 5601,
      "AAAAAAAAAAAAAAAA": 5602,
      "Ġgeneral": 5603,
      "ç»§ç»Ń": 5604,
      "_modules": 5605,
      "Ġaddition": 5606,
      "PRO": 5607,
      "Ġkeep": 5608,
      "Ġproperties": 5609,
      "å±ŀäºİ": 5610,
      "ilities": 5611,
      "_(": 5612,
      "MB": 5613,
      "URE": 5614,
      "Ġdetermine": 5615,
      "atical": 5616,
      "FN": 5617,
      "ding": 5618,
      "can": 5619,
      "kt": 5620,
      "Ġtechn": 5621,
      "å·´": 5622,
      "Ġaction": 5623,
      "ç¯ĩ": 5624,
      "Ġacross": 5625,
      "Ġhttps": 5626,
      "å¼ºè°ĥ": 5627,
      "åĨħéĥ¨": 5628,
      "ç«¥": 5629,
      "ç¼ĵ": 5630,
      "ponse": 5631,
      "Ġsequence": 5632,
      "_reg": 5633,
      "anced": 5634,
      "ä½ľèĢħ": 5635,
      "ä¾Ŀæ³ķ": 5636,
      "Ġ<!--": 5637,
      "inux": 5638,
      "XX": 5639,
      "STR": 5640,
      "earch": 5641,
      ".png": 5642,
      "Format": 5643,
      "_UN": 5644,
      "å°¤": 5645,
      "Ġvariable": 5646,
      "ĠError": 5647,
      "æĥħåĨµä¸ĭ": 5648,
      "ĠCopyright": 5649,
      "è®¾ç½®": 5650,
      ",å¦Ĥ": 5651,
      "BQ": 5652,
      "æİĮæı¡": 5653,
      "çļĦå½±åĵį": 5654,
      "ä»ĭç»į": 5655,
      "TML": 5656,
      "Ġconvert": 5657,
      "æ»¡è¶³": 5658,
      "å½ĵåīį": 5659,
      "=\"-": 5660,
      "èĽĭ": 5661,
      "Ġfurther": 5662,
      "éĴ±": 5663,
      "inline": 5664,
      ".sc": 5665,
      "åĬłå¿«": 5666,
      "æľ¨": 5667,
      "Ġgreat": 5668,
      "(void": 5669,
      "ags": 5670,
      ".on": 5671,
      "Co": 5672,
      "Ġevalu": 5673,
      "Ġ/**Ċ": 5674,
      "_time": 5675,
      "_error": 5676,
      "utes": 5677,
      "_dir": 5678,
      "Ġtoken": 5679,
      "æİ¢ç´¢": 5680,
      ")+": 5681,
      "âĸ": 5682,
      "_equal": 5683,
      "ĠNe": 5684,
      "ĠPr": 5685,
      "ç®Ģåįķ": 5686,
      "Ġincrease": 5687,
      "_node": 5688,
      "Ġ/**": 5689,
      "Ġben": 5690,
      "ï¼Įæľī": 5691,
      "æł¹æľ¬": 5692,
      "éī": 5693,
      "ĠÂ": 5694,
      "è´¸æĺĵ": 5695,
      "æĢ§èĥ½": 5696,
      "Read": 5697,
      "//Ċ": 5698,
      "Ġtogether": 5699,
      "Ġglobal": 5700,
      "gb": 5701,
      "sy": 5702,
      "è¿ĺæľī": 5703,
      "Ġsubject": 5704,
      ",p": 5705,
      "style": 5706,
      "è¿ĳå¹³": 5707,
      "Ġquestions": 5708,
      "Ġcertain": 5709,
      "though": 5710,
      "ä¼ĺåĮĸ": 5711,
      "${": 5712,
      "Ġsolid": 5713,
      "äºĭä¸ļ": 5714,
      ".\"Ċ": 5715,
      "gebra": 5716,
      "å¼ķèµ·": 5717,
      "raft": 5718,
      "å¹´æĿ¥": 5719,
      "TD": 5720,
      "Ph": 5721,
      ",åį³": 5722,
      "é©¬åħĭæĢĿ": 5723,
      "abor": 5724,
      "è§¦": 5725,
      "ä¹łè¿ĳå¹³": 5726,
      "ales": 5727,
      "typename": 5728,
      "æµĭè¯ķ": 5729,
      "ä¾§": 5730,
      "NC": 5731,
      "\":{\"": 5732,
      "æ¸¯": 5733,
      "Message": 5734,
      "ĠĠĠĠĠĠĠĠĠĠĠĠĠĠĠĠĠĠĠĠĠĠ": 5735,
      ".</_>Ċ": 5736,
      "Content": 5737,
      "Status": 5738,
      "å®¢æĪ·": 5739,
      "ARE": 5740,
      "-y": 5741,
      "OB": 5742,
      "yg": 5743,
      "ired": 5744,
      ";\\": 5745,
      "chan": 5746,
      "Ġleg": 5747,
      "/v": 5748,
      "åī¯": 5749,
      "Ġnecess": 5750,
      "åŃ¦çĶŁçļĦ": 5751,
      "Ġclo": 5752,
      "lying": 5753,
      "Ġstream": 5754,
      "éĢĶ": 5755,
      "é¾Ļ": 5756,
      "Ġobt": 5757,
      "btn": 5758,
      "ç³»åĪĹ": 5759,
      ":e": 5760,
      "^\\": 5761,
      "Ġrespect": 5762,
      "Equal": 5763,
      "agement": 5764,
      "å®¹æĺĵ": 5765,
      "Ġfore": 5766,
      "}(": 5767,
      "å¤«": 5768,
      "éī´": 5769,
      "Right": 5770,
      "osp": 5771,
      "æ¯Ķå¦Ĥ": 5772,
      "(w": 5773,
      "è½®": 5774,
      "ges": 5775,
      "æıı": 5776,
      "ï¼ļĊ": 5777,
      "())Ċ": 5778,
      "ĠAmerican": 5779,
      "oth": 5780,
      "Ġir": 5781,
      ".a": 5782,
      "åĬĽçļĦ": 5783,
      "umer": 5784,
      "oud": 5785,
      "å¹¿æ³Ľ": 5786,
      "docs": 5787,
      "Ġrelationship": 5788,
      "Ab": 5789,
      "Ġimpact": 5790,
      "Ġneeded": 5791,
      "éĢļå¸¸": 5792,
      "aced": 5793,
      "è®¼": 5794,
      "è·¨": 5795,
      "éĻĪ": 5796,
      "æĦıè§ģ": 5797,
      "=\"_": 5798,
      "æķĳ": 5799,
      "Ġtree": 5800,
      "Ġprovides": 5801,
      "æĹ¥æľ¬": 5802,
      "Ġpopulation": 5803,
      "vas": 5804,
      "Ġdays": 5805,
      "Length": 5806,
      "Ġhistory": 5807,
      "åĬĽéĩı": 5808,
      "æ¯Ľ": 5809,
      "å¹ħ": 5810,
      "ĠĠĠĠĠĠĠĠĠĠĠĠĠĠĠĠĠĠĠĠĠĠĠĠĠĠĠĠĠĠĠĠĠĠĠ": 5811,
      "Ġrelated": 5812,
      "å®½": 5813,
      ",å®ĥ": 5814,
      "YP": 5815,
      "çļĦæĸ°": 5816,
      "env": 5817,
      "ledge": 5818,
      "Ġmagn": 5819,
      "ĠÎ": 5820,
      "ç»ıè¿ĩ": 5821,
      "You": 5822,
      "Ġmaking": 5823,
      "Ġther": 5824,
      "å¼ķå¯¼": 5825,
      "Ġobjects": 5826,
      "(S": 5827,
      "æĺ¥": 5828,
      "},{": 5829,
      "())": 5830,
      "Ġbecome": 5831,
      "çĸ¾çĹħ": 5832,
      "_cast": 5833,
      "TG": 5834,
      "_k": 5835,
      "æİ¥åıĹ": 5836,
      "åĪĨåĪ«": 5837,
      "èµĦæĸĻ": 5838,
      "CI": 5839,
      "éĴ¢": 5840,
      "æ±ł": 5841,
      "bda": 5842,
      "Ġ\\[[@": 5843,
      "Ġequations": 5844,
      "åı¶": 5845,
      "Ġcannot": 5846,
      "ĉp": 5847,
      "ison": 5848,
      "comes": 5849,
      "ï¼Įä¸º": 5850,
      "imals": 5851,
      "Ġsent": 5852,
      "cccccccc": 5853,
      "ering": 5854,
      "Ġ...": 5855,
      "æĺł": 5856,
      "åĨĮ": 5857,
      "\\t": 5858,
      "Ġterm": 5859,
      "axis": 5860,
      "Ġdistribution": 5861,
      "ĠNot": 5862,
      "ä¹İ": 5863,
      "çİ°å®ŀ": 5864,
      "Ġrandom": 5865,
      "Ġtrain": 5866,
      "ĠâĢĺ": 5867,
      "Ġapproach": 5868,
      "è¯¢": 5869,
      "çĽĺ": 5870,
      "bon": 5871,
      "User": 5872,
      "Ġstudies": 5873,
      "(T": 5874,
      "()ĊĊ": 5875,
      "è¯´æĺİ": 5876,
      "ĠTHE": 5877,
      "çĭ¬ç«ĭ": 5878,
      "Ġnear": 5879,
      "pressed": 5880,
      "_em": 5881,
      "Ġseries": 5882,
      "Ġprevent": 5883,
      "ä½ĵçİ°": 5884,
      "(u": 5885,
      "Ġinvest": 5886,
      "å¿«éĢŁ": 5887,
      "éĽĨä¸Ń": 5888,
      "(*": 5889,
      "Ġcreated": 5890,
      "Log": 5891,
      "è¯īè®¼": 5892,
      "ocket": 5893,
      "Ġrot": 5894,
      "ä¹ħ": 5895,
      "åŃ£": 5896,
      "QL": 5897,
      "begin": 5898,
      "éļĲ": 5899,
      "èĸ": 5900,
      "CP": 5901,
      "æ°ĳä¸»": 5902,
      "Ġinline": 5903,
      ".size": 5904,
      "ava": 5905,
      "And": 5906,
      "Ġput": 5907,
      "çĸĳ": 5908,
      "aset": 5909,
      "Ġexec": 5910,
      "na": 5911,
      "sec": 5912,
      "Ġsepar": 5913,
      "}),": 5914,
      "ĠCalcul": 5915,
      "etadata": 5916,
      ",ä¸ŃåĽ½": 5917,
      "Ġsearch": 5918,
      "ians": 5919,
      "èĵ": 5920,
      "Ġlit": 5921,
      ",å°Ĩ": 5922,
      "Ġurl": 5923,
      "Ġresp": 5924,
      "æľĢåĲİ": 5925,
      "åıĳå¸ĥ": 5926,
      "åĮĸåŃ¦": 5927,
      "æķ´ä½ĵ": 5928,
      "Ġden": 5929,
      "çļĦåŁºæľ¬": 5930,
      ",åı¯ä»¥": 5931,
      "Ġmicro": 5932,
      "cho": 5933,
      "Ġaccount": 5934,
      "åĨľæ°ĳ": 5935,
      "é¡¾": 5936,
      "éĹ»": 5937,
      "/g": 5938,
      "/f": 5939,
      "Ax": 5940,
      "Ġdtype": 5941,
      "wrap": 5942,
      "äºĨä¸Ģ": 5943,
      "é¼ĵ": 5944,
      "Ġapply": 5945,
      "_y": 5946,
      "ibrary": 5947,
      "æĮ¯": 5948,
      "}{\\": 5949,
      "vents": 5950,
      "}\\)": 5951,
      "èĢħçļĦ": 5952,
      "çĶ²": 5953,
      "ĠQu": 5954,
      "Ġ)ĊĊ": 5955,
      "Range": 5956,
      "Ġloss": 5957,
      "ĠAPI": 5958,
      "ç»¿èī²": 5959,
      "elf": 5960,
      ".è¿Ļ": 5961,
      "Ġhandle": 5962,
      "èĲ½å®ŀ": 5963,
      "ĠĊĊ": 5964,
      "\"\"\"Ċ": 5965,
      "skip": 5966,
      "æħ¢": 5967,
      "heme": 5968,
      "ĠĠĠĠĠĠĠĠĊ": 5969,
      "ä¸įä¼ļ": 5970,
      "Ġ>>>": 5971,
      "Ġxml": 5972,
      "éĢŁåº¦": 5973,
      "çĶŁåĳ½": 5974,
      ".max": 5975,
      "Ġcontinu": 5976,
      "Ġlinear": 5977,
      "theta": 5978,
      "ĉm": 5979,
      "CS": 5980,
      "\\).": 5981,
      "aged": 5982,
      "èģĶåĲĪ": 5983,
      "æīĭæ®µ": 5984,
      "Ġsection": 5985,
      "#ifdef": 5986,
      "\"===": 5987,
      "Ġangle": 5988,
      "åĪ¸": 5989,
      "AK": 5990,
      "Ġfr": 5991,
      "Ġpref": 5992,
      "How": 5993,
      "éģ¿åħį": 5994,
      "Ġsolve": 5995,
      "ably": 5996,
      "ndef": 5997,
      "è´¯": 5998,
      "vo": 5999,
      "èŀįåĲĪ": 6000,
      "=new": 6001,
      ")/": 6002,
      "äº¤æµģ": 6003,
      "äºĭä»¶": 6004,
      "ĠØ": 6005,
      "ynamic": 6006,
      "Left": 6007,
      ".path": 6008,
      "æŀĦæĪĲ": 6009,
      "åľ°ä½į": 6010,
      "æķ´ä¸ª": 6011,
      "ina": 6012,
      "è´§å¸ģ": 6013,
      "tocol": 6014,
      "]);Ċ": 6015,
      "Ġamong": 6016,
      "âĪ": 6017,
      "quad": 6018,
      "]:": 6019,
      "çİ°ä»£åĮĸ": 6020,
      "è§£éĩĬ": 6021,
      "èĦī": 6022,
      "Ap": 6023,
      "å°ļ": 6024,
      "è¡ĮåĬ¨": 6025,
      ",âĢĿ": 6026,
      "ï¼Įåħ¶": 6027,
      "ung": 6028,
      "Ġcommand": 6029,
      "YS": 6030,
      "çĽ¸äºĴ": 6031,
      "ernel": 6032,
      "try": 6033,
      "New": 6034,
      "Ġnatural": 6035,
      "çŁ¥éģĵ": 6036,
      "éº": 6037,
      "ç½ļ": 6038,
      "ä½ĵåĪ¶": 6039,
      "Ġspecified": 6040,
      "Ġexperim": 6041,
      "Ġparts": 6042,
      "å²ģ": 6043,
      "ä¸°å¯Į": 6044,
      "Ġothers": 6045,
      "é½": 6046,
      "ĠThat": 6047,
      ".id": 6048,
      "ä¸ĵå®¶": 6049,
      "åĿı": 6050,
      "åįıè®®": 6051,
      "ãĢĳ": 6052,
      "çĲĨå¿µ": 6053,
      "ãĢĲ": 6054,
      "resh": 6055,
      "Ġ('": 6056,
      "-radius": 6057,
      "åķĨåĵģ": 6058,
      "AULT": 6059,
      "ured": 6060,
      "_u": 6061,
      "anel": 6062,
      "Ġcontinue": 6063,
      "ĠPre": 6064,
      "åĬª": 6065,
      "Ġ~": 6066,
      "Ġhel": 6067,
      "å¸Ŀ": 6068,
      "sets": 6069,
      "roller": 6070,
      "é¦Ļ": 6071,
      "<!--": 6072,
      "/l": 6073,
      "number": 6074,
      ".dis": 6075,
      "Ġsay": 6076,
      "/**": 6077,
      "Ġeffects": 6078,
      "Ġload": 6079,
      "å¤§å®¶": 6080,
      "æī¿æĭħ": 6081,
      "ç´¯": 6082,
      "istribut": 6083,
      "åĳ¢": 6084,
      "Ġdifference": 6085,
      "æ½ľ": 6086,
      "Height": 6087,
      "åģı": 6088,
      "è·Ł": 6089,
      ",h": 6090,
      "Ġobj": 6091,
      "çĦ¶åĲİ": 6092,
      "ILE": 6093,
      "rs": 6094,
      "ä½Ĩæĺ¯": 6095,
      "ĠBe": 6096,
      ",è¦ģ": 6097,
      "nology": 6098,
      "çĹĽ": 6099,
      "ï¼ĮæĪĳä»¬": 6100,
      "Ġparameter": 6101,
      "Lj": 6102,
      "ĠReturns": 6103,
      "æĭ¥": 6104,
      "çĪ¶": 6105,
      "æĢĿç»´": 6106,
      "Ġrights": 6107,
      "(B": 6108,
      "å°±ä¸ļ": 6109,
      "/h": 6110,
      "çĬ¯ç½ª": 6111,
      "Ġneeds": 6112,
      "æŃ£å¸¸": 6113,
      "NU": 6114,
      "åŁºåĽł": 6115,
      "Row": 6116,
      "ĠDMA": 6117,
      "omial": 6118,
      "æľĢç»Ī": 6119,
      "now": 6120,
      "Ġnetwork": 6121,
      "ANT": 6122,
      "ĠSub": 6123,
      "äººåı£": 6124,
      "æ®Ĭ": 6125,
      "esh": 6126,
      "FS": 6127,
      "ĠUnited": 6128,
      "_STAT": 6129,
      "DP": 6130,
      "note": 6131,
      "Ġfar": 6132,
      "=\"/": 6133,
      "uccess": 6134,
      "strong": 6135,
      "olutions": 6136,
      "é¡µ": 6137,
      "æĿ¥æºĲ": 6138,
      "arguments": 6139,
      "Act": 6140,
      "))ĊĊ": 6141,
      "åºŁ": 6142,
      "lta": 6143,
      "FIG": 6144,
      "LINE": 6145,
      "etime": 6146,
      "ç¡®ä¿Ŀ": 6147,
      "mat": 6148,
      "Ġcontains": 6149,
      "Ġask": 6150,
      "zz": 6151,
      "Ġreason": 6152,
      "circ": 6153,
      "ĠGe": 6154,
      "(int": 6155,
      "ards": 6156,
      "äºĭå®ŀ": 6157,
      "è´¢æĶ¿": 6158,
      "java": 6159,
      "_ERROR": 6160,
      "Ġdiscuss": 6161,
      "=b": 6162,
      "IGN": 6163,
      "å¥¹": 6164,
      "Ġstates": 6165,
      "Ġbytes": 6166,
      "see": 6167,
      "where": 6168,
      "å§Ķåĳĺä¼ļ": 6169,
      "acro": 6170,
      "dl": 6171,
      "å¹¼": 6172,
      "change": 6173,
      "alpha": 6174,
      "YX": 6175,
      "_read": 6176,
      "è¡¨è¾¾": 6177,
      "çļĦä¸»è¦ģ": 6178,
      "Ġfeatures": 6179,
      "kg": 6180,
      "ç³ĸ": 6181,
      "åŃ¦éĻ¢": 6182,
      "ustr": 6183,
      "æ¶īåıĬ": 6184,
      "iving": 6185,
      "åĨ³çŃĸ": 6186,
      "atics": 6187,
      "ä¸Ģæ¬¡": 6188,
      "ä»ª": 6189,
      "æĮĳ": 6190,
      "part": 6191,
      "ç§Ł": 6192,
      "ä¸ŃåĽ½çī¹èī²": 6193,
      "Ġoption": 6194,
      "Stream": 6195,
      "å¿ħè¦ģ": 6196,
      "Ġsit": 6197,
      "ĠStud": 6198,
      "ZX": 6199,
      "Ġwomen": 6200,
      "è¯ģæĺİ": 6201,
      "çļĦçłĶç©¶": 6202,
      "Ġnumer": 6203,
      "åĲĥ": 6204,
      "process": 6205,
      "lyph": 6206,
      "ä¾Ŀæį®": 6207,
      "GE": 6208,
      "éĢĤåºĶ": 6209,
      "èĥľ": 6210,
      "éģį": 6211,
      "ĠSystem": 6212,
      "fb": 6213,
      "Ġoperator": 6214,
      "count": 6215,
      "Ġang": 6216,
      "çĻĮ": 6217,
      "Ġhard": 6218,
      "éĶĢåĶ®": 6219,
      "éĻĲåĪ¶": 6220,
      "åĪĨä¸º": 6221,
      "Cell": 6222,
      "çļĦé«ĺ": 6223,
      "IH": 6224,
      "Ġcolumn": 6225,
      "Ġkind": 6226,
      "æ¹ĸ": 6227,
      ":hover": 6228,
      "most": 6229,
      "çľŁæŃ£": 6230,
      "Ġflu": 6231,
      "ĠOptional": 6232,
      "iform": 6233,
      "åŁºéĩĳ": 6234,
      "mathbf": 6235,
      "otal": 6236,
      "Char": 6237,
      "æĪĲç«ĭ": 6238,
      "_init": 6239,
      "ides": 6240,
      ":-": 6241,
      "ointer": 6242,
      ".start": 6243,
      "Ġelif": 6244,
      "Ġmakes": 6245,
      "æ´ĭ": 6246,
      "svg": 6247,
      "_length": 6248,
      "æĿ¾": 6249,
      ":t": 6250,
      "æ¯ķ": 6251,
      ".z": 6252,
      "():Ċ": 6253,
      "second": 6254,
      "Ob": 6255,
      "Ġinstead": 6256,
      "Ġusually": 6257,
      "Ġpointer": 6258,
      "Ġevents": 6259,
      "values": 6260,
      "è°ĵ": 6261,
      "Ġways": 6262,
      "-x": 6263,
      "rist": 6264,
      "ï¿": 6265,
      "onal": 6266,
      "æľŁéĹ´": 6267,
      "æ¯ıä¸ª": 6268,
      "Ġstat": 6269,
      "åĳĪ": 6270,
      "Ġvolume": 6271,
      "ething": 6272,
      "çī©çļĦ": 6273,
      "æ¡Īä»¶": 6274,
      "Ġecon": 6275,
      "_></": 6276,
      "Ġawait": 6277,
      "Ġsignal": 6278,
      "Ġregion": 6279,
      "thread": 6280,
      "åįĸ": 6281,
      "Ġshown": 6282,
      "aken": 6283,
      "los": 6284,
      "-align": 6285,
      "&gt": 6286,
      "iven": 6287,
      "ĠDo": 6288,
      "(D": 6289,
      "ference": 6290,
      "ensity": 6291,
      "Gener": 6292,
      "Ġfuture": 6293,
      "Ġpressure": 6294,
      "-content": 6295,
      "CA": 6296,
      "å®ļçļĦ": 6297,
      "è¶£": 6298,
      "quired": 6299,
      ".min": 6300,
      "ãĢĤè¿Ļ": 6301,
      "æĮĩæłĩ": 6302,
      "cr": 6303,
      "****************************************************************": 6304,
      "Em": 6305,
      "context": 6306,
      "_from": 6307,
      "Ġnone": 6308,
      "_MAX": 6309,
      "ster": 6310,
      "Ġskills": 6311,
      ".un": 6312,
      "vation": 6313,
      "Ġpubl": 6314,
      "REF": 6315,
      ".v": 6316,
      "raint": 6317,
      "msg": 6318,
      "pected": 6319,
      "_att": 6320,
      "selected": 6321,
      "Ġgive": 6322,
      "ä¹¦è®°": 6323,
      "=False": 6324,
      "Ġhold": 6325,
      "SA": 6326,
      "_code": 6327,
      "Rec": 6328,
      "OV": 6329,
      "èĢģå¸Ī": 6330,
      "iteral": 6331,
      "&quot": 6332,
      ":r": 6333,
      "Ġanaly": 6334,
      "ising": 6335,
      "comm": 6336,
      "Ġaxis": 6337,
      "urope": 6338,
      "éĿĻ": 6339,
      "aded": 6340,
      "hib": 6341,
      "Col": 6342,
      ".node": 6343,
      "æĬĢèĥ½": 6344,
      "ieve": 6345,
      ".pre": 6346,
      "OLOR": 6347,
      "é¦Ĩ": 6348,
      "çĶ°": 6349,
      "ye": 6350,
      "istor": 6351,
      "<span": 6352,
      "ĠStates": 6353,
      "æĸĩç«ł": 6354,
      "è¿ŀæİ¥": 6355,
      ",{": 6356,
      "KEY": 6357,
      "Device": 6358,
      "ĠOne": 6359,
      "éħĴ": 6360,
      "åĲİçļĦ": 6361,
      "ï¿½": 6362,
      "åħµ": 6363,
      "la": 6364,
      "æħ§": 6365,
      "way": 6366,
      ".P": 6367,
      "ĠString": 6368,
      "åı¸æ³ķ": 6369,
      "abase": 6370,
      "achine": 6371,
      "ä¾ĽåºĶ": 6372,
      "mi": 6373,
      "Ġmodels": 6374,
      ".</_></": 6375,
      "Ġinflu": 6376,
      "GR": 6377,
      "ÙĦ": 6378,
      "long": 6379,
      "ĠCH": 6380,
      "Ġ};ĊĊ": 6381,
      "ä¿¡åı·": 6382,
      "ZW": 6383,
      "Ġsymbol": 6384,
      "izes": 6385,
      "Ġparameters": 6386,
      "ä¸Ģæł·": 6387,
      "Ġfocus": 6388,
      "ĉbreak": 6389,
      ".remove": 6390,
      "Ġhim": 6391,
      "Ġemp": 6392,
      "åį·": 6393,
      "æĬĵ": 6394,
      "\\\":\\\"": 6395,
      "Ġsure": 6396,
      "åĬªåĬĽ": 6397,
      "Ġfiles": 6398,
      "åī§": 6399,
      "Ġmaint": 6400,
      "dc": 6401,
      "ä¸Ĭæµ·": 6402,
      "cade": 6403,
      "åį«çĶŁ": 6404,
      "è´µ": 6405,
      "çĽ¸åºĶ": 6406,
      "uk": 6407,
      "_cl": 6408,
      "`Ċ": 6409,
      "ĠTrans": 6410,
      "------------": 6411,
      "Ġcondition": 6412,
      "Ġuseful": 6413,
      "ä¼ļè®¡": 6414,
      "èĢĹ": 6415,
      "Ġpair": 6416,
      "å±¥": 6417,
      ".css": 6418,
      "Ġchall": 6419,
      "ĠAR": 6420,
      "Ġbrain": 6421,
      "DM": 6422,
      "olec": 6423,
      "GC": 6424,
      "ä½įç½®": 6425,
      "nal": 6426,
      "ĠCheck": 6427,
      "Ġfill": 6428,
      "detail": 6429,
      "é£Łåĵģ": 6430,
      "ignature": 6431,
      "ç»Łè®¡": 6432,
      "åİĭåĬĽ": 6433,
      "Ġalt": 6434,
      "åĩºçļĦ": 6435,
      "æľĢé«ĺ": 6436,
      "PH": 6437,
      "_,": 6438,
      "è§ĦåĪĻ": 6439,
      "ä¸īä¸ª": 6440,
      "Ġbehavior": 6441,
      "¹ģ": 6442,
      "ĉĉĉĉĉĉĉĉ": 6443,
      "keyword": 6444,
      "here": 6445,
      "Ġmath": 6446,
      ".index": 6447,
      "Ġerr": 6448,
      "Ptr": 6449,
      "meta": 6450,
      "åħ°": 6451,
      "_device": 6452,
      "cing": 6453,
      "æķ°éĩı": 6454,
      "riority": 6455,
      "Ġdefinition": 6456,
      "Ġprotect": 6457,
      ",u": 6458,
      ".options": 6459,
      "Ġthings": 6460,
      "Ġblack": 6461,
      "FC": 6462,
      "_model": 6463,
      "etch": 6464,
      ",åı¯": 6465,
      "Ġwhy": 6466,
      "è¶ĭåĬ¿": 6467,
      "There": 6468,
      "Ġhalf": 6469,
      "ä¼ģä¸ļçļĦ": 6470,
      "!(": 6471,
      "Ġlikely": 6472,
      "åĪĨåŃĲ": 6473,
      "igen": 6474,
      "æľīéĻĲ": 6475,
      "å½»": 6476,
      "åĩ½": 6477,
      "å¹²éĥ¨": 6478,
      "æĶ¯ä»ĺ": 6479,
      "si": 6480,
      "Ġassum": 6481,
      "ontal": 6482,
      "current": 6483,
      "ĠHAL": 6484,
      "Output": 6485,
      "åº§": 6486,
      "Ġ{ĊĊ": 6487,
      "-sm": 6488,
      "å¥ĭ": 6489,
      "END": 6490,
      "ä¹īåĬ¡": 6491,
      "ĠPol": 6492,
      "Ġapp": 6493,
      "æĺ¯æĮĩ": 6494,
      "teger": 6495,
      "ä½ľåĵģ": 6496,
      "Ġmechan": 6497,
      "çĩĥ": 6498,
      "_map": 6499,
      "||(": 6500,
      "Ġwriting": 6501,
      "SM": 6502,
      "uid": 6503,
      "prec": 6504,
      "=f": 6505,
      "_idx": 6506,
      "ycle": 6507,
      "Ġfeel": 6508,
      "Ġseem": 6509,
      "inding": 6510,
      "wards": 6511,
      "Ġgovernment": 6512,
      "ĠFr": 6513,
      "éľ²": 6514,
      "æĺ¯ä¸Ģç§į": 6515,
      "åĦ¿ç«¥": 6516,
      "ASH": 6517,
      "rel": 6518,
      "Ġhyp": 6519,
      "Window": 6520,
      "Ġessential": 6521,
      "Ġdirection": 6522,
      "da": 6523,
      "},\"": 6524,
      "ä¹ı": 6525,
      "åįıè°ĥ": 6526,
      "Ġwritten": 6527,
      "rie": 6528,
      "Ġresources": 6529,
      "Ġ);ĊĊ": 6530,
      "ä¹¡æĿĳ": 6531,
      "ggle": 6532,
      "çī¹æ®Ĭ": 6533,
      "Ġì": 6534,
      "Ġwide": 6535,
      "grid": 6536,
      "ï¼Įä½¿": 6537,
      "äº¡": 6538,
      "éĩįè§Ĩ": 6539,
      "ä¸ĭéĻį": 6540,
      "ç§Ģ": 6541,
      "Ġ++": 6542,
      "Ġ{\"": 6543,
      "=o": 6544,
      "Ġprobability": 6545,
      "Ġuses": 6546,
      "#ifndef": 6547,
      "assed": 6548,
      "Ġvert": 6549,
      "Case": 6550,
      "lide": 6551,
      "Ġfamily": 6552,
      "Ġupdate": 6553,
      "Ġstrong": 6554,
      "![": 6555,
      "æĺ¯ä¸Ģ": 6556,
      "adio": 6557,
      "rot": 6558,
      "while": 6559,
      ".default": 6560,
      "Ġhost": 6561,
      "Ġfields": 6562,
      "istry": 6563,
      "QQ": 6564,
      "Ġincreased": 6565,
      "æľĢå¤§": 6566,
      "\\).ĊĊ": 6567,
      "Ġvol": 6568,
      "Ġcourse": 6569,
      "ĠState": 6570,
      "cf": 6571,
      "æıĲä¾ĽäºĨ": 6572,
      "mediate": 6573,
      "Ġarguments": 6574,
      "annot": 6575,
      "Ġonce": 6576,
      "}function": 6577,
      "ç½²": 6578,
      "èĤ¿": 6579,
      "gradient": 6580,
      "ched": 6581,
      "Ġill": 6582,
      "ĠWith": 6583,
      "imgdir": 6584,
      "Token": 6585,
      "è®¡ç®Ĺæľº": 6586,
      "Ġdescription": 6587,
      "ä¸Ģæĸ¹éĿ¢": 6588,
      "Ġvariables": 6589,
      "rav": 6590,
      ":(": 6591,
      "_PRO": 6592,
      "å®ľ": 6593,
      "gn": 6594,
      "rip": 6595,
      "Response": 6596,
      "Ġwhole": 6597,
      "è´¥": 6598,
      "-ex": 6599,
      "Ġgreater": 6600,
      "Ġhome": 6601,
      "éĺ¿": 6602,
      "Oper": 6603,
      "Ġinfo": 6604,
      "å°¤åħ¶": 6605,
      "+(": 6606,
      "Ġcomponent": 6607,
      "di": 6608,
      "Ġbenef": 6609,
      "Iter": 6610,
      "throw": 6611,
      "after": 6612,
      "_dict": 6613,
      "çŁ¿": 6614,
      "gorithm": 6615,
      "Ġgives": 6616,
      "ĉfor": 6617,
      "UX": 6618,
      "(data": 6619,
      "Ġcancer": 6620,
      "rr": 6621,
      "mu": 6622,
      "ç§°ä¸º": 6623,
      "ICE": 6624,
      "æĶ¹åĸĦ": 6625,
      "Ġ'\\": 6626,
      "(A": 6627,
      "æ¸©åº¦": 6628,
      "iqu": 6629,
      "Ġdifficult": 6630,
      "ica": 6631,
      "oo": 6632,
      "çº·": 6633,
      "xfe": 6634,
      "UI": 6635,
      "ropdown": 6636,
      "_EXT": 6637,
      "Ġdecl": 6638,
      "','": 6639,
      "ips": 6640,
      "igation": 6641,
      "æ°¸": 6642,
      "ifying": 6643,
      "_FUN": 6644,
      "rapper": 6645,
      "ĠANY": 6646,
      "ighlight": 6647,
      "gex": 6648,
      "inite": 6649,
      "irm": 6650,
      "çĥĪ": 6651,
      "æ¢°": 6652,
      "Ġexam": 6653,
      "èĢĥè¯ķ": 6654,
      "Ġaverage": 6655,
      "åĪĨå¸ĥ": 6656,
      "Ġteam": 6657,
      "BL": 6658,
      "éħįç½®": 6659,
      "Ġsimpl": 6660,
      "Top": 6661,
      "oph": 6662,
      "éĻĨ": 6663,
      "=s": 6664,
      "Vector": 6665,
      ";border": 6666,
      "è¯¸": 6667,
      "ube": 6668,
      "ç¹ģ": 6669,
      "èĽĭçĻ½": 6670,
      "\"))": 6671,
      "Ġdes": 6672,
      "_block": 6673,
      "Ġdict": 6674,
      "è´¢äº§": 6675,
      "Ġcorrespon": 6676,
      "ĠGeneral": 6677,
      "âĢĿãĢĤ": 6678,
      "Ġstop": 6679,
      "Ġpractice": 6680,
      "äººå·¥": 6681,
      "write": 6682,
      "é¥®": 6683,
      "Ġprec": 6684,
      "uation": 6685,
      "When": 6686,
      "å®ĥä»¬": 6687,
      "æĸ¹éĿ¢çļĦ": 6688,
      "PO": 6689,
      "ç³»ç»ŁçļĦ": 6690,
      "åĽ¢éĺŁ": 6691,
      "Check": 6692,
      "æĿ¥è¶Ĭ": 6693,
      "è¡¨æĺİ": 6694,
      "_for": 6695,
      "æŃ¤å¤ĸ": 6696,
      "å´": 6697,
      "åħ±äº§åħļ": 6698,
      "ONG": 6699,
      "ĠâĢĶ": 6700,
      "IND": 6701,
      "_offset": 6702,
      "anged": 6703,
      "æ³ķè§Ħ": 6704,
      "ractions": 6705,
      "adr": 6706,
      "çŃ¹": 6707,
      ".(": 6708,
      "æ¶¦": 6709,
      "ä¼łæĴŃ": 6710,
      "*)": 6711,
      "Init": 6712,
      "è¶ĬæĿ¥è¶Ĭ": 6713,
      "SO": 6714,
      "wer": 6715,
      "_array": 6716,
      "comment": 6717,
      "åľ¨äºİ": 6718,
      "Ġreference": 6719,
      "Ġsomething": 6720,
      "vider": 6721,
      "Ġsides": 6722,
      "åĩĿ": 6723,
      "Button": 6724,
      "Ġimprove": 6725,
      "çģ¾": 6726,
      "æĬµ": 6727,
      "element": 6728,
      "åĪĨç±»": 6729,
      "Ġenough": 6730,
      "æģ¶": 6731,
      "imest": 6732,
      "åĢį": 6733,
      "Method": 6734,
      "Ġcallback": 6735,
      "ĠCo": 6736,
      "Ġinteger": 6737,
      "Ġinit": 6738,
      "ulate": 6739,
      "Ġwar": 6740,
      "Ġpaper": 6741,
      "using": 6742,
      "Ġpast": 6743,
      "åĿĢ": 6744,
      "_AL": 6745,
      "åĪĺ": 6746,
      "ç¦ģ": 6747,
      "åĩºäºĨ": 6748,
      "ĠĠĠĠĠĠĠĠĠĠĠĠĠĠĠĠĠĠĠĠĠĠĠĠĠĠ": 6749,
      "Ġ!==": 6750,
      "Ġlayer": 6751,
      "_IM": 6752,
      "-child": 6753,
      "EFAULT": 6754,
      "has": 6755,
      "bg": 6756,
      "æŃ£åľ¨": 6757,
      "Label": 6758,
      "Over": 6759,
      "éĹ®é¢ĺçļĦ": 6760,
      "ĉvar": 6761,
      "ITH": 6762,
      "_text": 6763,
      "ETH": 6764,
      "dependent": 6765,
      "Ġstudent": 6766,
      "ĠMat": 6767,
      "Ġsort": 6768,
      "èĩªæĪĳ": 6769,
      "_IS": 6770,
      "inc": 6771,
      "Ð°Ð": 6772,
      "Ġplant": 6773,
      "ebug": 6774,
      "Del": 6775,
      "kwargs": 6776,
      "å®ļä¹ī": 6777,
      "Ġexact": 6778,
      "åŃĶ": 6779,
      "æĪı": 6780,
      "åĬ¨åĬĽ": 6781,
      "aring": 6782,
      "æķ°åŃ¦": 6783,
      "åĬłå·¥": 6784,
      "éģĵè·¯": 6785,
      "ï¼ļâĢľ": 6786,
      "_res": 6787,
      "fl": 6788,
      "#[": 6789,
      "Ġgrowth": 6790,
      "monstr": 6791,
      "å¥ĸ": 6792,
      ".key": 6793,
      "ä¸´åºĬ": 6794,
      "\",{": 6795,
      "éĺħè¯»": 6796,
      "App": 6797,
      "çī©çĲĨ": 6798,
      "Callback": 6799,
      "status": 6800,
      "core": 6801,
      "lice": 6802,
      "Ġinterface": 6803,
      "ponents": 6804,
      "Ġremo": 6805,
      "/C": 6806,
      "æī©å¤§": 6807,
      ",è¿ĺ": 6808,
      "éŃ": 6809,
      "pat": 6810,
      "ring": 6811,
      "ipher": 6812,
      "GF": 6813,
      "è§Ħå¾ĭ": 6814,
      "ï¼Įåı¯ä»¥": 6815,
      "BO": 6816,
      "Ġcustom": 6817,
      "Ġmen": 6818,
      "module": 6819,
      "Ġauthor": 6820,
      "Position": 6821,
      "è´¦": 6822,
      "å¾Ģå¾Ģ": 6823,
      "Ġapprox": 6824,
      "ARR": 6825,
      "Ġadded": 6826,
      "arger": 6827,
      "^{-": 6828,
      "actions": 6829,
      "){Ċ": 6830,
      "ĠAct": 6831,
      "Ġcalculate": 6832,
      "å±Ĭ": 6833,
      "ilit": 6834,
      "å¼ºåĮĸ": 6835,
      "çĶ¨çļĦ": 6836,
      "Gr": 6837,
      "Ġbi": 6838,
      "call": 6839,
      "çĽ¾": 6840,
      "IA": 6841,
      "Max": 6842,
      "å®ģ": 6843,
      "ĠĠĠĠĠĠĠĠĠĠĠĠĠĠĠĠĠĠĠĠĠĠĠĠĠĠĠĠĠ": 6844,
      "allel": 6845,
      "Ġbound": 6846,
      "Ġpay": 6847,
      "enge": 6848,
      "Ġphysical": 6849,
      "Ġengine": 6850,
      "Gui": 6851,
      "å½©": 6852,
      "ä¸įè¶³": 6853,
      "Ġdemonstr": 6854,
      "Ġvec": 6855,
      "çĺ¤": 6856,
      "Bl": 6857,
      "GV": 6858,
      "_AP": 6859,
      "Ġ\\\\Ċ": 6860,
      "ĠRegister": 6861,
      "çļĦæĹ¶åĢĻ": 6862,
      "BA": 6863,
      "Ġactive": 6864,
      "ĠAss": 6865,
      "å¯»": 6866,
      "plicit": 6867,
      "center": 6868,
      "aW": 6869,
      "åĪ©äºİ": 6870,
      "Tree": 6871,
      "Ġindu": 6872,
      "Ġbasic": 6873,
      "å¸¦æĿ¥": 6874,
      "Ġ[@": 6875,
      "æ²¿": 6876,
      "DE": 6877,
      "ä¸»åĬ¨": 6878,
      "åıįæĺł": 6879,
      "ç¥ŀç»ı": 6880,
      "[a": 6881,
      "xml": 6882,
      "Ġworking": 6883,
      "Ġactivities": 6884,
      ",å¤§": 6885,
      "å½ĵäºĭ": 6886,
      "è§ĤçĤ¹": 6887,
      "ç²Ĵ": 6888,
      "Ġmaterials": 6889,
      ",ä»İèĢĮ": 6890,
      "åĸľ": 6891,
      "Ġbus": 6892,
      "è¦Ĩ": 6893,
      "tep": 6894,
      "æ¡£": 6895,
      "Ġmiss": 6896,
      "Ġconsidered": 6897,
      "ĠEurope": 6898,
      "_AT": 6899,
      "èĩªä¸»": 6900,
      "å¸ĮæľĽ": 6901,
      "Professor": 6902,
      "]+": 6903,
      "åĪĨéħį": 6904,
      "åªĴä½ĵ": 6905,
      "?\"": 6906,
      "çĦ¶èĢĮ": 6907,
      "zM": 6908,
      "Ġdecre": 6909,
      "_IT": 6910,
      "_num": 6911,
      "éģĵå¾·": 6912,
      "Ġdetect": 6913,
      "\"],Ċ": 6914,
      "_BASE": 6915,
      "Tag": 6916,
      ".has": 6917,
      "hemical": 6918,
      "ouch": 6919,
      "Ġadditional": 6920,
      "ĠSup": 6921,
      "Ġwhite": 6922,
      "Ġrecent": 6923,
      "Ġisinstance": 6924,
      "Ġnames": 6925,
      "æľºåĻ¨": 6926,
      "_PR": 6927,
      "Ġimmun": 6928,
      "Ġcome": 6929,
      "_is": 6930,
      "navbar": 6931,
      "Ġestab": 6932,
      "ĠInt": 6933,
      "iness": 6934,
      "è§Ĵåº¦": 6935,
      "Ġintrodu": 6936,
      "Ġensure": 6937,
      ".log": 6938,
      "ĠRef": 6939,
      "_start": 6940,
      "addr": 6941,
      "Ver": 6942,
      "mic": 6943,
      "æĭĵ": 6944,
      "pol": 6945,
      "è¯ķéªĮ": 6946,
      "æĻºæħ§": 6947,
      "å¤ļæķ°": 6948,
      "locity": 6949,
      "_STR": 6950,
      "æĬĺ": 6951,
      "ugin": 6952,
      "åĪļ": 6953,
      "ĉg": 6954,
      "Const": 6955,
      "Ġbits": 6956,
      "è®Ńç»ĥ": 6957,
      "æĽ¿": 6958,
      "å¼¹": 6959,
      "Ġsens": 6960,
      "DF": 6961,
      "Ġhor": 6962,
      "Ġ$\\": 6963,
      "Ġdiscover": 6964,
      "Ġdiag": 6965,
      ",éĢļè¿ĩ": 6966,
      "éĻ¤äºĨ": 6967,
      "Ġexplo": 6968,
      ",è®©": 6969,
      "'re": 6970,
      "imple": 6971,
      "oment": 6972,
      "ised": 6973,
      "ampl": 6974,
      "leep": 6975,
      "Ġreturns": 6976,
      "Ġassign": 6977,
      "celer": 6978,
      "plete": 6979,
      "asic": 6980,
      "Ġep": 6981,
      "Ġconsist": 6982,
      "ology": 6983,
      "èµĽ": 6984,
      "Â°": 6985,
      "Ġdam": 6986,
      "So": 6987,
      "ii": 6988,
      "Ġaccur": 6989,
      "%.": 6990,
      "Ġcompar": 6991,
      "Ġhowever": 6992,
      "Ġnecessary": 6993,
      "Ġign": 6994,
      "Ġla": 6995,
      "è§Ĥå¯Ł": 6996,
      "å¤Ħäºİ": 6997,
      "ï¼Įå°±": 6998,
      "Ġaccording": 6999,
      "pecially": 7000,
      "ç£ģ": 7001,
      "Ġ),Ċ": 7002,
      "RC": 7003,
      "Ġknowledge": 7004,
      "å¹´ä»£": 7005,
      "æķı": 7006,
      "Ġreading": 7007,
      "?(": 7008,
      "Component": 7009,
      "Pos": 7010,
      "æĹ§": 7011,
      "éĿ¢ä¸´": 7012,
      "(N": 7013,
      "Ġapplication": 7014,
      "izontal": 7015,
      "é©¬åħĭæĢĿä¸»ä¹ī": 7016,
      "irit": 7017,
      "Ġallows": 7018,
      "ä¸ºä¸»": 7019,
      "Ġ#[": 7020,
      "ä¸ĭçļĦ": 7021,
      "}},": 7022,
      "è¯¾åłĤ": 7023,
      "Ġcm": 7024,
      "_mem": 7025,
      "ĠPublic": 7026,
      "iver": 7027,
      "anges": 7028,
      "\"+": 7029,
      "Ġfam": 7030,
      "_object": 7031,
      "Ġincluded": 7032,
      "ria": 7033,
      "soft": 7034,
      "èĤ¥": 7035,
      "_per": 7036,
      "åıĤåĬł": 7037,
      "Ġunique": 7038,
      "Ġlittle": 7039,
      "Ġasync": 7040,
      "HB": 7041,
      "ä¸ŃåĽ½çī¹èī²ç¤¾ä¼ļä¸»ä¹ī": 7042,
      "create": 7043,
      "XG": 7044,
      "[str": 7045,
      "feature": 7046,
      "Handler": 7047,
      "Reference": 7048,
      "åĩĢ": 7049,
      ".text": 7050,
      "åĳ¼": 7051,
      "Ġdf": 7052,
      "ught": 7053,
      "icen": 7054,
      "ç¤¾åĮº": 7055,
      "äººæ°ĳæ³ķéĻ¢": 7056,
      "sig": 7057,
      ".parent": 7058,
      "å¡ĳ": 7059,
      "Instance": 7060,
      "icker": 7061,
      "Ġdirectly": 7062,
      "pg": 7063,
      "çŁĽ": 7064,
      "Ġfund": 7065,
      "encies": 7066,
      "Ùħ": 7067,
      "å¤ļç§į": 7068,
      "å¹³åĿĩ": 7069,
      "æĸ°æĹ¶ä»£": 7070,
      "SB": 7071,
      "å·®å¼Ĥ": 7072,
      "Ġcoll": 7073,
      "thern": 7074,
      "ï¼Įåį³": 7075,
      "-text": 7076,
      "eds": 7077,
      "ï¼īï¼Į": 7078,
      "ĠNumber": 7079,
      "æ´ŀ": 7080,
      "_test": 7081,
      "æĿ¥çľĭ": 7082,
      "sect": 7083,
      "åĵ²": 7084,
      "Manager": 7085,
      "éĹŃ": 7086,
      "ptoms": 7087,
      "_NO": 7088,
      "é©±": 7089,
      "æ²Ļ": 7090,
      "Web": 7091,
      "Ġach": 7092,
      "æŃĮ": 7093,
      "Ġproces": 7094,
      "_base": 7095,
      "Ġmsg": 7096,
      "éģµ": 7097,
      "çĹħæ¯Ĵ": 7098,
      "è®°å½ķ": 7099,
      "hel": 7100,
      "ĠclassName": 7101,
      ",æĪĳ": 7102,
      "_TX": 7103,
      "ä¸¥æł¼": 7104,
      "ĠForm": 7105,
      ".from": 7106,
      "é²ľ": 7107,
      "ĠMe": 7108,
      "é¡¶": 7109,
      "ï¼Įå¦Ĥ": 7110,
      "çİ¯èĬĤ": 7111,
      "é«ĺçļĦ": 7112,
      "NG": 7113,
      "æľ«": 7114,
      "è¡¨éĿ¢": 7115,
      "Ġoperation": 7116,
      "Ġarch": 7117,
      "Ġshows": 7118,
      "/L": 7119,
      "Return": 7120,
      ")*": 7121,
      "Ġflags": 7122,
      "åĮ»éĻ¢": 7123,
      "RES": 7124,
      "_by": 7125,
      "å®ŀè¡Į": 7126,
      ".F": 7127,
      ".ext": 7128,
      "allow": 7129,
      "è®¨è®º": 7130,
      "ĠSci": 7131,
      "Ġrecogn": 7132,
      ".cl": 7133,
      "èĢĮè¨Ģ": 7134,
      "peat": 7135,
      "VM": 7136,
      "_ext": 7137,
      "_DATA": 7138,
      "untime": 7139,
      ",ä»ĸ": 7140,
      "åĬŀæ³ķ": 7141,
      "_result": 7142,
      "uestion": 7143,
      "ä¹ĭåīį": 7144,
      "Ġitems": 7145,
      "Ident": 7146,
      "åĪ¤æĸŃ": 7147,
      "_table": 7148,
      "RL": 7149,
      ".array": 7150,
      "ä½Ľ": 7151,
      "çĽŁ": 7152,
      "Ġargument": 7153,
      "Arg": 7154,
      "Mj": 7155,
      "une": 7156,
      "Ġcollect": 7157,
      "_mode": 7158,
      "ĠBrit": 7159,
      "Ġ=Ċ": 7160,
      "èµĶ": 7161,
      "(k": 7162,
      "å½ĵæĹ¶": 7163,
      "å°Ĭ": 7164,
      "Ġmolec": 7165,
      "-box": 7166,
      "holder": 7167,
      "Mod": 7168,
      "rees": 7169,
      "Ġmaximum": 7170,
      "ç¤¼": 7171,
      ".end": 7172,
      ".style": 7173,
      "Ġdistributed": 7174,
      "Ġreport": 7175,
      "%;": 7176,
      "uit": 7177,
      "çŃĸçķ¥": 7178,
      "çŁĽçĽ¾": 7179,
      "Ġmathematical": 7180,
      "(P": 7181,
      "ayers": 7182,
      "æ¬¢": 7183,
      "Ġdoesn": 7184,
      "Ġheader": 7185,
      "vt": 7186,
      "Ġ],Ċ": 7187,
      "_ENABLE": 7188,
      "ç¬¬åĽĽ": 7189,
      "Ġfri": 7190,
      "æĬķåħ¥": 7191,
      "ä¼´": 7192,
      "_INT": 7193,
      "Ġavoid": 7194,
      "èĭ¦": 7195,
      "tempt": 7196,
      "ĠçļĦ": 7197,
      "Ġoccur": 7198,
      "Ġtw": 7199,
      "Ġdetails": 7200,
      "è¾ħ": 7201,
      "å¾ªçİ¯": 7202,
      "ITE": 7203,
      "AAA": 7204,
      "Ġ[[": 7205,
      "éĢ»": 7206,
      "Ġfilename": 7207,
      "Exception": 7208,
      "_lo": 7209,
      "Ġclient": 7210,
      "=null": 7211,
      "oss": 7212,
      "Ġlocation": 7213,
      "åİļ": 7214,
      "æĴĳ": 7215,
      "ining": 7216,
      "async": 7217,
      "ĠOut": 7218,
      "Ġandroid": 7219,
      "_MODE": 7220,
      "æĮĳæĪĺ": 7221,
      "Ġri": 7222,
      "çľĭåĪ°": 7223,
      "Create": 7224,
      "ĠRTC": 7225,
      "oom": 7226,
      "å·¥èīº": 7227,
      "Ã¡": 7228,
      "Ġhaving": 7229,
      ">=": 7230,
      "Î±": 7231,
      "LT": 7232,
      "Command": 7233,
      "ĠList": 7234,
      "bn": 7235,
      "æ¯Ķä¾ĭ": 7236,
      "Ġ*,": 7237,
      "è¯ĳ": 7238,
      "äº¿åħĥ": 7239,
      "ĠAut": 7240,
      "with": 7241,
      "Ġgas": 7242,
      "ĠEqu": 7243,
      "(value": 7244,
      "Ġinterval": 7245,
      "Ġ\\)Ċ": 7246,
      "ux": 7247,
      "å¤§éĩı": 7248,
      "éĢĲæ¸Ĳ": 7249,
      "Ġtag": 7250,
      ":focus": 7251,
      "Ġbar": 7252,
      "ĠGer": 7253,
      "ç½ĳç«Ļ": 7254,
      "é«ĺæł¡": 7255,
      "[r": 7256,
      "Ġdate": 7257,
      "Ġentry": 7258,
      ")\"": 7259,
      "ï¼Įå°Ĩ": 7260,
      "sequ": 7261,
      "atal": 7262,
      "åģļå¥½": 7263,
      "params": 7264,
      "æĥ¯": 7265,
      "åĩĨç¡®": 7266,
      "UF": 7267,
      "Module": 7268,
      "ĉĉĉĉĉĉĉ": 7269,
      "ili": 7270,
      "èĶ": 7271,
      "ĠAfr": 7272,
      "amera": 7273,
      "_input": 7274,
      "èĤī": 7275,
      "æķĻæİĪ": 7276,
      "Ġprogress": 7277,
      "ĉs": 7278,
      "Ġseen": 7279,
      "ä¸įå¾Ĺ": 7280,
      "Ġresource": 7281,
      "Ġcontain": 7282,
      "_label": 7283,
      "Ġtests": 7284,
      "iers": 7285,
      "æµģç¨ĭ": 7286,
      "Ġsn": 7287,
      "Ġmm": 7288,
      "Ġnamespace": 7289,
      "ï¼ģ": 7290,
      "_ser": 7291,
      "Ġsays": 7292,
      "Ġplants": 7293,
      "ï¼ĽĊ": 7294,
      "Pol": 7295,
      "YW": 7296,
      "Ġur": 7297,
      "ä¸Ĭè¿°": 7298,
      "uilder": 7299,
      "ç¾İåħĥ": 7300,
      "è¦ģç´ł": 7301,
      "æ¼ı": 7302,
      "çī¹åĪ«æĺ¯": 7303,
      "ims": 7304,
      "Ġcore": 7305,
      "æ³ķæ²»": 7306,
      "));ĊĊ": 7307,
      "Min": 7308,
      "-height": 7309,
      "æĻ®éĢļ": 7310,
      "Ġbal": 7311,
      "Ġforms": 7312,
      "aff": 7313,
      "å¥ĩ": 7314,
      "Ġcompared": 7315,
      "Ġground": 7316,
      "Ġ\\((": 7317,
      "ä¸Ģèµ·": 7318,
      "Ġoperations": 7319,
      "ĠName": 7320,
      "plex": 7321,
      "Ġ\"Ċ": 7322,
      "_BIT": 7323,
      "inci": 7324,
      "åħ¨éĥ¨": 7325,
      "amples": 7326,
      "é«ĺåº¦": 7327,
      "Ġparse": 7328,
      "è´´": 7329,
      "åŃ¦æľ¯": 7330,
      "ç»ķ": 7331,
      "rows": 7332,
      "IGHT": 7333,
      "æ²ī": 7334,
      "pret": 7335,
      "Flags": 7336,
      "_out": 7337,
      "Ġenable": 7338,
      "Ġrule": 7339,
      "æľīæľº": 7340,
      "çļĦæĸ¹æ³ķ": 7341,
      "çº¸": 7342,
      "\\\",": 7343,
      "ĠProblem": 7344,
      "aches": 7345,
      "Ġflex": 7346,
      "ç¢į": 7347,
      "ights": 7348,
      ".N": 7349,
      "éĢļä¿¡": 7350,
      "çĸ«æĥħ": 7351,
      "è½¬åŀĭ": 7352,
      "åĩ½æķ°": 7353,
      "Ġmillion": 7354,
      "Ġratio": 7355,
      "Open": 7356,
      "ONE": 7357,
      "Ġremove": 7358,
      "åħ±äº«": 7359,
      "Version": 7360,
      "æ¶µ": 7361,
      "ÙĨ": 7362,
      ":</": 7363,
      "Target": 7364,
      "\\/": 7365,
      ")->": 7366,
      "Ġheat": 7367,
      "EBUG": 7368,
      "arts": 7369,
      "VVVVVVVV": 7370,
      "åĶĲ": 7371,
      "uster": 7372,
      "PM": 7373,
      "_write": 7374,
      "æ²Ł": 7375,
      "term": 7376,
      "Ġevidence": 7377,
      ",åĽłæŃ¤": 7378,
      "_iter": 7379,
      "ĠCL": 7380,
      "ç§ĳçłĶ": 7381,
      "ĠSoftware": 7382,
      "æī¶": 7383,
      "å·¥ä½ľçļĦ": 7384,
      "_max": 7385,
      "insert": 7386,
      "Ġcomponents": 7387,
      "-S": 7388,
      "å±ħæ°ĳ": 7389,
      "Ġthread": 7390,
      "æĸĩåŃ¦": 7391,
      "anger": 7392,
      "è¿ģ": 7393,
      "æĿ¥èĩª": 7394,
      "ĠĠĠĠĠĠĠĠĠĠĠĠĠĠĠĠĠĠĠĠĠĠĠĠĠĠĠĠĠĠ": 7395,
      "-opacity": 7396,
      "ç©¿": 7397,
      "çĦ¦": 7398,
      "åĺ": 7399,
      "ï¼ĮâĢľ": 7400,
      "å±¥è¡Į": 7401,
      "___": 7402,
      ";var": 7403,
      "å®£ä¼ł": 7404,
      "Service": 7405,
      "éĢ»è¾ĳ": 7406,
      ")]Ċ": 7407,
      "extern": 7408,
      "åİŁçĲĨ": 7409,
      "FE": 7410,
      "bt": 7411,
      "imit": 7412,
      "skipped": 7413,
      "Ġitself": 7414,
      "è¸": 7415,
      "ĠEXP": 7416,
      "ij": 7417,
      "æ°§åĮĸ": 7418,
      "ĠĠĠĠĠĠĠĠĠĠĠĠĠĠĠĠĠĠĠĠĠĠĠĠĠĠĠĠĠĠĠĠĠĠĠĠĠĠĠĠĠĠĠ": 7419,
      "éļĶ": 7420,
      "åĽ°éļ¾": 7421,
      "oundation": 7422,
      "Ġstrict": 7423,
      "Action": 7424,
      "DA": 7425,
      "åıªæĺ¯": 7426,
      "Ġdoc": 7427,
      "mber": 7428,
      "æįŁå¤±": 7429,
      "public": 7430,
      "omy": 7431,
      "å¹¶ä¸į": 7432,
      "é¾Ħ": 7433,
      "åħĪè¿Ľ": 7434,
      "aling": 7435,
      "Ig": 7436,
      "model": 7437,
      "diff": 7438,
      "ĠEnglish": 7439,
      "ua": 7440,
      "Ġbre": 7441,
      "ĠĠĠĠĠĠĠĠĠĠĠĠĠĠĠĠĠĠĠĠĠĠĠĠĠĠĠĠĠĠĠĠĠĠĠĠĠĠĠ": 7442,
      "æļ´": 7443,
      "ç´łè´¨": 7444,
      "ä¸¤ç§į": 7445,
      "çħ¤": 7446,
      "MENT": 7447,
      "åħ·å¤ĩ": 7448,
      ".sub": 7449,
      "uary": 7450,
      "çļĦæĸ¹å¼ı": 7451,
      "_US": 7452,
      "_end": 7453,
      "oogle": 7454,
      "èĥĮæĻ¯": 7455,
      "ctors": 7456,
      "fff": 7457,
      "urren": 7458,
      "ntax": 7459,
      "Ġespecially": 7460,
      "\">&": 7461,
      "æĢĿèĢĥ": 7462,
      "priate": 7463,
      "Ġrespon": 7464,
      "Ġcoordin": 7465,
      "éĢĲæŃ¥": 7466,
      "äº§æĿĥ": 7467,
      "çĽ¸åĲĮ": 7468,
      "Hel": 7469,
      "Ġrather": 7470,
      "essages": 7471,
      "ĠObject": 7472,
      "alls": 7473,
      "ĠCor": 7474,
      "imately": 7475,
      "ometric": 7476,
      "åĢºåĬ¡": 7477,
      "çłĶåıĳ": 7478,
      "æĹħæ¸¸": 7479,
      "è´¡": 7480,
      "Ġability": 7481,
      "èĤº": 7482,
      "åĨħçļĦ": 7483,
      "çĬ¶åĨµ": 7484,
      "ĠId": 7485,
      "ä¸ĢçĽ´": 7486,
      "acement": 7487,
      "ifies": 7488,
      "ultiply": 7489,
      "dro": 7490,
      "åĲĹ": 7491,
      "âĢ¦âĢ¦": 7492,
      ":`": 7493,
      "åĩĨå¤ĩ": 7494,
      "Ġer": 7495,
      "Ġsite": 7496,
      "req": 7497,
      "stroy": 7498,
      "å²Ĺ": 7499,
      "ä¹±": 7500,
      "My": 7501,
      "Client": 7502,
      "çº¯": 7503,
      "Ġswitch": 7504,
      "Ġconfiguration": 7505,
      "ĠNow": 7506,
      "_token": 7507,
      "ea": 7508,
      "_ids": 7509,
      "aries": 7510,
      "rial": 7511,
      "ĠNational": 7512,
      "////////////////////////////////////////////////////////////////": 7513,
      "Ġtriangle": 7514,
      "Ġaway": 7515,
      "_output": 7516,
      "items": 7517,
      "ÃĹ": 7518,
      "AIL": 7519,
      "åıĤèĢĥ": 7520,
      "_with": 7521,
      "Ġunits": 7522,
      "_log": 7523,
      "aml": 7524,
      "è¿Ľè¡ĮäºĨ": 7525,
      "_back": 7526,
      "èį¯çī©": 7527,
      "hl": 7528,
      ",g": 7529,
      "Ġbyte": 7530,
      "ĉunsigned": 7531,
      "Ġsense": 7532,
      "eder": 7533,
      "åĳĺå·¥": 7534,
      "å¹³è¡¡": 7535,
      "Tem": 7536,
      "æ¡Ĩ": 7537,
      "Back": 7538,
      "_OP": 7539,
      "/or": 7540,
      "Ge": 7541,
      ",å¦Ĥæŀľ": 7542,
      "æĶ¯æĴĳ": 7543,
      "xu": 7544,
      "åĩºçīĪ": 7545,
      ".tr": 7546,
      "æ¥¼": 7547,
      "å©ļ": 7548,
      "Ġincludes": 7549,
      "&lt": 7550,
      "éĴŁ": 7551,
      "Access": 7552,
      "Ġselected": 7553,
      "oman": 7554,
      "å·¦åı³": 7555,
      "cast": 7556,
      "ä¼Łå¤§": 7557,
      "äº¦": 7558,
      "(L": 7559,
      "Ġthought": 7560,
      "Update": 7561,
      "éĢĴ": 7562,
      "æľºæ¢°": 7563,
      "Ii": 7564,
      "Ø±": 7565,
      "æĩ": 7566,
      "ĠWork": 7567,
      "loor": 7568,
      "æº¶": 7569,
      "Ġproduction": 7570,
      "olving": 7571,
      "_\\": 7572,
      "éĶĻè¯¯": 7573,
      "ĠAfter": 7574,
      "Ġundefined": 7575,
      "Ġproduce": 7576,
      "Ġcut": 7577,
      "éĩİ": 7578,
      "æľ¬èº«": 7579,
      "Ġexamples": 7580,
      "pand": 7581,
      "np": 7582,
      "/j": 7583,
      "çĥŁ": 7584,
      "Ġtool": 7585,
      "-pro": 7586,
      "_AC": 7587,
      "_VAL": 7588,
      "fect": 7589,
      "ils": 7590,
      "oy": 7591,
      "èį£": 7592,
      "$.": 7593,
      "Ġtheory": 7594,
      "_addr": 7595,
      "inciple": 7596,
      ">&#": 7597,
      "å¤ļä¸ª": 7598,
      "å¸Ń": 7599,
      "-border": 7600,
      "Ġ|=": 7601,
      "Ġ\\]Ċ": 7602,
      "-based": 7603,
      "Ġrock": 7604,
      "Ġetc": 7605,
      "show": 7606,
      "Ġserver": 7607,
      "Ġtrack": 7608,
      "atives": 7609,
      "ĉĊ": 7610,
      "æĢ»ç»ĵ": 7611,
      "_LE": 7612,
      "æī¬": 7613,
      "Ġnever": 7614,
      "æĢ§è´¨": 7615,
      "Ġlarger": 7616,
      "Ġvirtual": 7617,
      "Ġexperience": 7618,
      "çĽĳæµĭ": 7619,
      "ç¼ĺ": 7620,
      "Ġpublished": 7621,
      "Ġaccept": 7622,
      "çºł": 7623,
      "é¼ĵåĬ±": 7624,
      "ME": 7625,
      "åĶ¯": 7626,
      "çļĦå·¥ä½ľ": 7627,
      "foot": 7628,
      "è½¬åıĺ": 7629,
      "è¿ĩåİ»": 7630,
      "Ġrect": 7631,
      "patch": 7632,
      "ä¸ĩåħĥ": 7633,
      "è´¹çĶ¨": 7634,
      "Ġquery": 7635,
      "Listener": 7636,
      "èĮ¶": 7637,
      "export": 7638,
      "{margin": 7639,
      "Ġentire": 7640,
      "Ġyoung": 7641,
      "stitute": 7642,
      "Ġimages": 7643,
      "ĠMed": 7644,
      "ssion": 7645,
      ".md": 7646,
      "Ġgoing": 7647,
      "æĦŁæŁĵ": 7648,
      "ç²®": 7649,
      "(result": 7650,
      "ç¿»": 7651,
      "Ġcentury": 7652,
      "ÙĪ": 7653,
      "Ġreduce": 7654,
      "_head": 7655,
      "Ġprimary": 7656,
      "Ġtmp": 7657,
      "ILITY": 7658,
      "Ġeffective": 7659,
      "Spec": 7660,
      "æĢĢ": 7661,
      "mb": 7662,
      "Ne": 7663,
      "æ´ģ": 7664,
      "Ġempty": 7665,
      ";<": 7666,
      "Entry": 7667,
      "éĿ¢ç§¯": 7668,
      "buffer": 7669,
      "\"]Ċ": 7670,
      "ĠRed": 7671,
      ",æĽ´": 7672,
      "å±ĭ": 7673,
      "Ġtoday": 7674,
      "Address": 7675,
      ")&&": 7676,
      "printf": 7677,
      "Ġcontribut": 7678,
      "Ġsupported": 7679,
      "older": 7680,
      "æĳĦ": 7681,
      "-v": 7682,
      "_buffer": 7683,
      ":**Ċ": 7684,
      "Ġ(\\": 7685,
      "è®ºæĸĩ": 7686,
      "Ġflag": 7687,
      "ĠUp": 7688,
      "è£Ĥ": 7689,
      "èħĲ": 7690,
      "Ġinside": 7691,
      "Ġclin": 7692,
      "func": 7693,
      ")]": 7694,
      ":.": 7695,
      "oney": 7696,
      "Ġhelps": 7697,
      "æĬ½": 7698,
      "éķľ": 7699,
      "Ġcountry": 7700,
      "ternational": 7701,
      "(y": 7702,
      "Ġfive": 7703,
      "æĺ¾èĳĹ": 7704,
      "Ġservice": 7705,
      "ç¼ºä¹ı": 7706,
      "Ġconcepts": 7707,
      "area": 7708,
      "æĢİä¹Ī": 7709,
      "æĸ½å·¥": 7710,
      "-name": 7711,
      ".R": 7712,
      "è°¢": 7713,
      "å°¼": 7714,
      "äºĮæĺ¯": 7715,
      "ulated": 7716,
      "Ġdeveloped": 7717,
      "ä¸Ģå®ļçļĦ": 7718,
      "Ġbir": 7719,
      "Acc": 7720,
      "ln": 7721,
      "æĭ¥æľī": 7722,
      "Ġmeaning": 7723,
      "Ġopp": 7724,
      "Ð»": 7725,
      "isms": 7726,
      "Ġrequires": 7727,
      "å®ĭ": 7728,
      "æľ¬æĸĩ": 7729,
      "Control": 7730,
      "å½ĵäºĭäºº": 7731,
      "plies": 7732,
      "AMP": 7733,
      "è¿ħ": 7734,
      "èµĸ": 7735,
      "è¯ģæį®": 7736,
      ".L": 7737,
      "ï¼ŁĊ": 7738,
      "Ñĥ": 7739,
      "Ġtiss": 7740,
      "cel": 7741,
      "%B": 7742,
      ",åĲĮæĹ¶": 7743,
      "æ¹¿": 7744,
      "Ġcard": 7745,
      "åŃĺåĤ¨": 7746,
      "åľĨ": 7747,
      "éĥ½æľī": 7748,
      "BR": 7749,
      "TX": 7750,
      "Ġsymptoms": 7751,
      "ĠĠĊĊ": 7752,
      "è¿Ľç¨ĭ": 7753,
      "ĠBl": 7754,
      "LP": 7755,
      "è¯¦": 7756,
      "Ġarr": 7757,
      ")\\)": 7758,
      "LC": 7759,
      "Ġsun": 7760,
      "è´¢åĬ¡": 7761,
      "(M": 7762,
      "æĬĳ": 7763,
      "Ġvisual": 7764,
      "ä¸Ńå°ı": 7765,
      "èĤĿ": 7766,
      "åĽ½æ°ĳ": 7767,
      "_FLAG": 7768,
      "page": 7769,
      "Ġinvolves": 7770,
      "edit": 7771,
      "Ġradi": 7772,
      "à¦": 7773,
      "Ġcross": 7774,
      "ĈĈĈĈ": 7775,
      "Ġheart": 7776,
      "roke": 7777,
      "æĻļ": 7778,
      "Ġeducation": 7779,
      "\"(": 7780,
      "Ġsat": 7781,
      "Ġapplications": 7782,
      "Sup": 7783,
      "Ġsubt": 7784,
      "images": 7785,
      "å°¿": 7786,
      "èİ·åıĸ": 7787,
      "æ¾": 7788,
      "etes": 7789,
      "ĠĠĠĠĠĠĠĠĠĠĠĠĠĠĠĠĠĠĠĠĠĠĠĠĠĠĠĠ": 7790,
      "AW": 7791,
      "Each": 7792,
      "è½¬ç§»": 7793,
      "Ġpredict": 7794,
      "å³°": 7795,
      "æ³¨åĨĮ": 7796,
      "èĤĮ": 7797,
      "Ġcarbon": 7798,
      "\"==": 7799,
      "SG": 7800,
      "URL": 7801,
      "ometimes": 7802,
      "èĭĹ": 7803,
      "Ġfrequency": 7804,
      "_RX": 7805,
      ".\\": 7806,
      "Ġparticip": 7807,
      ":none": 7808,
      "èĪ¹": 7809,
      "Change": 7810,
      "Write": 7811,
      "ĉelse": 7812,
      "vc": 7813,
      ",èĢĮä¸Ķ": 7814,
      "å½¢æĢģ": 7815,
      "Server": 7816,
      "EQ": 7817,
      "Ġvia": 7818,
      "ĠClass": 7819,
      "åĵģçīĮ": 7820,
      "Ġprivate": 7821,
      "ä¼ĳ": 7822,
      "Dec": 7823,
      "ha": 7824,
      "utf": 7825,
      "éĻ·": 7826,
      "Ġreturned": 7827,
      "åĪº": 7828,
      "_DEV": 7829,
      "-lg": 7830,
      "éĽ¨": 7831,
      "*,": 7832,
      "ä»Ĭå¹´": 7833,
      "ç²ī": 7834,
      "Ġcy": 7835,
      "ilename": 7836,
      "target": 7837,
      "ĉc": 7838,
      "ĠNOT": 7839,
      "_class": 7840,
      "å±Ĥæ¬¡": 7841,
      ".åĽłæŃ¤": 7842,
      "zm": 7843,
      "Ġrender": 7844,
      "fully": 7845,
      ".width": 7846,
      "è´·æ¬¾": 7847,
      "åĩºåı£": 7848,
      "Ġactually": 7849,
      "clusion": 7850,
      "Ġcommunity": 7851,
      "MR": 7852,
      "_MOD": 7853,
      "/x": 7854,
      "è¿Ļæł·çļĦ": 7855,
      "Ġassess": 7856,
      "device": 7857,
      "æ³ķçļĦ": 7858,
      "è¿ĲèĲ¥": 7859,
      "å®ı": 7860,
      "_context": 7861,
      "Ġreview": 7862,
      "Ġanimals": 7863,
      "ĠSince": 7864,
      "Ġtaken": 7865,
      "å¹¼åĦ¿": 7866,
      "apy": 7867,
      "è¥¿æĸ¹": 7868,
      "illi": 7869,
      "Ġappear": 7870,
      "lines": 7871,
      "ä¸Ģæĺ¯": 7872,
      "åĵ²åŃ¦": 7873,
      "Ġprotein": 7874,
      "AST": 7875,
      "ality": 7876,
      "éĽĨåĽ¢": 7877,
      "Ġtell": 7878,
      "eatures": 7879,
      "_lock": 7880,
      "æĪĲåĳĺ": 7881,
      "]).": 7882,
      "Ġresearchers": 7883,
      "ĠCar": 7884,
      "åĮħåĲ«": 7885,
      "åħ¬å¼Ģ": 7886,
      "_z": 7887,
      "ĠAny": 7888,
      "æł·çļĦ": 7889,
      "Ġsteps": 7890,
      "æĪĺäºī": 7891,
      "ĠThen": 7892,
      "èıľ": 7893,
      "ĠFind": 7894,
      "Ġstre": 7895,
      "hesis": 7896,
      "Ġclock": 7897,
      "åĨł": 7898,
      "Ġcircle": 7899,
      "lineno": 7900,
      "çľŁå®ŀ": 7901,
      "åħ¼": 7902,
      "æĻ®éģį": 7903,
      "Vis": 7904,
      "ana": 7905,
      "Ġfraction": 7906,
      "éļ¾ä»¥": 7907,
      "Ug": 7908,
      ".em": 7909,
      "Ġpolit": 7910,
      "TEST": 7911,
      "ĀĀ": 7912,
      "Bit": 7913,
      "Ġconduct": 7914,
      "åı«": 7915,
      "ĠAND": 7916,
      "}ĊĊĊ": 7917,
      "ç§»åĬ¨": 7918,
      "ios": 7919,
      "dp": 7920,
      "posed": 7921,
      "One": 7922,
      "çĳ": 7923,
      "ivil": 7924,
      "å¤ı": 7925,
      "Ġarticle": 7926,
      "æģ¢": 7927,
      "æĢ»ä½ĵ": 7928,
      "è¿Ķ": 7929,
      "_SET": 7930,
      "oe": 7931,
      ".hpp": 7932,
      "{x": 7933,
      "Ġhours": 7934,
      "Ġpassed": 7935,
      "ĠPart": 7936,
      "Ġclimate": 7937,
      "anks": 7938,
      "åı¦å¤ĸ": 7939,
      "åĪĽä¸ļ": 7940,
      "SED": 7941,
      "namespace": 7942,
      "ĠWar": 7943,
      "ynomial": 7944,
      "éĿ¢å¯¹": 7945,
      "æ¡Īä¾ĭ": 7946,
      "utor": 7947,
      "å®īæİĴ": 7948,
      "æ·±åĮĸ": 7949,
      "æ´Ĺ": 7950,
      "SEL": 7951,
      "plit": 7952,
      "èŀįèµĦ": 7953,
      "first": 7954,
      "çªģåĩº": 7955,
      "Ġreceived": 7956,
      "Ġconnection": 7957,
      "TYPE": 7958,
      "Ġparams": 7959,
      "_CFG": 7960,
      "ä½ľåĩº": 7961,
      "Ġctx": 7962,
      "ï¿½ï¿½": 7963,
      "stract": 7964,
      "è¿«": 7965,
      "é¢Ħæµĭ": 7966,
      "Ac": 7967,
      "unct": 7968,
      "Ġ\"+": 7969,
      "Header": 7970,
      "Ġquality": 7971,
      "è¯·æ±Ĥ": 7972,
      "Ġfac": 7973,
      ",y": 7974,
      "åıĤæķ°": 7975,
      "åıĮæĸ¹": 7976,
      "Ġmembers": 7977,
      "idx": 7978,
      "è¿ĽæŃ¥": 7979,
      "è°±": 7980,
      "FP": 7981,
      "éĿ¢çļĦ": 7982,
      "gers": 7983,
      "dx": 7984,
      "rown": 7985,
      ";c": 7986,
      "ĉconst": 7987,
      "Ġregular": 7988,
      "å®īè£ħ": 7989,
      "Ġextra": 7990,
      "ĠJoh": 7991,
      "Settings": 7992,
      "Ġrespons": 7993,
      "(R": 7994,
      "Ġtrad": 7995,
      "è®°èĢħ": 7996,
      "è½¬åĮĸ": 7997,
      "æ³½": 7998,
      "ä¸Ģèĩ´": 7999,
      "ĠPRO": 8000,
      "riter": 8001,
      "çªģçł´": 8002,
      "iction": 8003,
      "åįģåĪĨ": 8004,
      "enable": 8005,
      "éĢĤçĶ¨": 8006,
      "Ġ;": 8007,
      ")||": 8008,
      "Ġwave": 8009,
      "Ġscience": 8010,
      "ged": 8011,
      "Ġindividuals": 8012,
      "ulations": 8013,
      "é½Ĳ": 8014,
      "à¥": 8015,
      "æĿĢ": 8016,
      "æµĵ": 8017,
      "Ġbottom": 8018,
      "æµĭéĩı": 8019,
      "çĻ»è®°": 8020,
      "window": 8021,
      "Ġdeath": 8022,
      "Page": 8023,
      "scope": 8024,
      "ï¼Įè¦ģ": 8025,
      "Pres": 8026,
      "&nbsp": 8027,
      "èĦĤ": 8028,
      ".model": 8029,
      "æµģåĬ¨": 8030,
      "Bo": 8031,
      "åĳ¨æľŁ": 8032,
      "èĢĲ": 8033,
      "æ®ĭ": 8034,
      "Ġtechnology": 8035,
      "Ġperformance": 8036,
      "Ġinterrupt": 8037,
      "åıĳè¡¨": 8038,
      "Level": 8039,
      "tion": 8040,
      "ike": 8041,
      ")ãĢģ": 8042,
      "å²Ľ": 8043,
      "_sub": 8044,
      "Ġproducts": 8045,
      "åĵªäºĽ": 8046,
      ".test": 8047,
      "iler": 8048,
      "Cal": 8049,
      "Ġnuc": 8050,
      "-shadow": 8051,
      "Ġvalign": 8052,
      "æĥł": 8053,
      "-md": 8054,
      "è§Ĥå¿µ": 8055,
      "-line": 8056,
      "Ġstore": 8057,
      "tegr": 8058,
      "å®ª": 8059,
      ")[": 8060,
      "ĠMethod": 8061,
      "æ®ĸ": 8062,
      "ada": 8063,
      "Ġbuf": 8064,
      "ategy": 8065,
      "dm": 8066,
      "Valid": 8067,
      "è®¯": 8068,
      "unit": 8069,
      "disabled": 8070,
      "MPL": 8071,
      ".read": 8072,
      "Ġfeed": 8073,
      "Ġnet": 8074,
      "reme": 8075,
      "Ġconsum": 8076,
      "RR": 8077,
      "ä¿¡çĶ¨": 8078,
      "<h": 8079,
      "mal": 8080,
      "ĠFL": 8081,
      "ĠDefault": 8082,
      "áĥ": 8083,
      "ĠArray": 8084,
      "event": 8085,
      "æĹłè®º": 8086,
      "rea": 8087,
      ".ui": 8088,
      "ĠCol": 8089,
      "(?:": 8090,
      "Ġsurv": 8091,
      "Search": 8092,
      "Ġåľ¨": 8093,
      "ately": 8094,
      "ĠWARR": 8095,
      "'],": 8096,
      ",æīĢä»¥": 8097,
      "Sw": 8098,
      "Ġyield": 8099,
      "-T": 8100,
      "Script": 8101,
      "Ġderiv": 8102,
      "Ġlive": 8103,
      "uler": 8104,
      "Ġsafe": 8105,
      "Ġreally": 8106,
      "_ref": 8107,
      "è¿Ĳè¾ĵ": 8108,
      "å®Įæķ´": 8109,
      "Br": 8110,
      "Ġconcent": 8111,
      "main": 8112,
      "imestamp": 8113,
      "éĽĨä½ĵ": 8114,
      "Ġmar": 8115,
      "çļĦæķ°æį®": 8116,
      "SV": 8117,
      "ĠKey": 8118,
      "ening": 8119,
      "_CTRL": 8120,
      "èµĭ": 8121,
      "Ġattention": 8122,
      "(new": 8123,
      "-up": 8124,
      "NV": 8125,
      "Ġmonths": 8126,
      ".find": 8127,
      "Ġdst": 8128,
      "ATH": 8129,
      "host": 8130,
      "Ġ/**<": 8131,
      "èĥ¶": 8132,
      ".âĢĿĊ": 8133,
      "ĠFirst": 8134,
      "lated": 8135,
      "ERSION": 8136,
      "selves": 8137,
      "Ġidentify": 8138,
      "çĶµæ±ł": 8139,
      "æģ¢å¤į": 8140,
      "æ½®": 8141,
      "Ġtum": 8142,
      "ournal": 8143,
      "Ġquick": 8144,
      ";&#": 8145,
      "èļ": 8146,
      "actory": 8147,
      "children": 8148,
      "\")ĊĊ": 8149,
      "Matrix": 8150,
      "-button": 8151,
      "ĠCO": 8152,
      "ography": 8153,
      "BG": 8154,
      "è¯ļ": 8155,
      "Ġappropriate": 8156,
      "Ġconstruct": 8157,
      "ellow": 8158,
      "ERV": 8159,
      "æ¯ķä¸ļ": 8160,
      "ĠBit": 8161,
      "icial": 8162,
      "_pr": 8163,
      "æĭ¿": 8164,
      "<int": 8165,
      "lor": 8166,
      "CF": 8167,
      "pped": 8168,
      "DI": 8169,
      "Num": 8170,
      "_field": 8171,
      "çļĦä¸Ģä¸ª": 8172,
      "Pyx": 8173,
      "Ġ([": 8174,
      "Ġapplied": 8175,
      "æĶ¶çĽĬ": 8176,
      "Ġsolutions": 8177,
      "/pro": 8178,
      "parent": 8179,
      "åºĹ": 8180,
      "\":Ċ": 8181,
      "amental": 8182,
      "è¯ĨåĪ«": 8183,
      "rowser": 8184,
      "Ġvideo": 8185,
      "eacher": 8186,
      "æľºä¼ļ": 8187,
      "aws": 8188,
      "CV": 8189,
      "æ¡¥": 8190,
      ",ä¸İ": 8191,
      "[c": 8192,
      "threshold": 8193,
      "èª": 8194,
      "æ·±åĪ»": 8195,
      "_q": 8196,
      "Ġcruc": 8197,
      "Rect": 8198,
      "]*": 8199,
      "çģŃ": 8200,
      "çİī": 8201,
      "ä¼ĺç§Ģ": 8202,
      "Bar": 8203,
      "romise": 8204,
      "æĸ°éĹ»": 8205,
      "åĽ½çļĦ": 8206,
      "Ġbinary": 8207,
      "Ġstack": 8208,
      "ĠNote": 8209,
      "é±": 8210,
      "Next": 8211,
      "åģļåĪ°": 8212,
      ".exports": 8213,
      "AH": 8214,
      "æĿĥçļĦ": 8215,
      "ociety": 8216,
      "æīĢè°ĵ": 8217,
      "Ġoffer": 8218,
      "_OTG": 8219,
      "è½´": 8220,
      "Description": 8221,
      "ä»ĸçļĦ": 8222,
      "Me": 8223,
      "idge": 8224,
      "_check": 8225,
      "ï¼Įå®ĥ": 8226,
      "łéģĵ": 8227,
      "çĽ¸æ¯Ķ": 8228,
      "Ġthird": 8229,
      "ĠEXTI": 8230,
      "Ġcomputer": 8231,
      "(.": 8232,
      "ĠJS": 8233,
      "ming": 8234,
      "double": 8235,
      "æĢ»ä¹¦è®°": 8236,
      "è´¡çĮ®": 8237,
      "Ġsound": 8238,
      "Font": 8239,
      "Ġshare": 8240,
      "æ»ĳ": 8241,
      "cut": 8242,
      "}}{": 8243,
      "HTML": 8244,
      "_SY": 8245,
      ",m": 8246,
      "ĠMar": 8247,
      ".write": 8248,
      "ä»Ĭå¤©": 8249,
      "Ġsamples": 8250,
      "_frame": 8251,
      "came": 8252,
      "ises": 8253,
      "ENSE": 8254,
      "Ġbio": 8255,
      "aker": 8256,
      "BE": 8257,
      "Ġlonger": 8258,
      "Ġgrad": 8259,
      "ĠMay": 8260,
      "IDE": 8261,
      "Ġhidden": 8262,
      "éĺ´": 8263,
      "_j": 8264,
      "Ġscreen": 8265,
      "_and": 8266,
      "ools": 8267,
      "ä»įçĦ¶": 8268,
      "peed": 8269,
      "translate": 8270,
      "ï½": 8271,
      "_dev": 8272,
      "ams": 8273,
      "Ġnote": 8274,
      "El": 8275,
      "_{\\": 8276,
      "_al": 8277,
      "Ġsmaller": 8278,
      "room": 8279,
      "orph": 8280,
      "çĶ·": 8281,
      "_WR": 8282,
      "å½ĵçĦ¶": 8283,
      "tml": 8284,
      "çļĦä½ľçĶ¨": 8285,
      ",!": 8286,
      "åĲĦç±»": 8287,
      "Ġsyn": 8288,
      "erge": 8289,
      ".èĢĮ": 8290,
      "åıªèĥ½": 8291,
      "icate": 8292,
      "æĸ°åŀĭ": 8293,
      "\"/><": 8294,
      "Ġtransfer": 8295,
      "QT": 8296,
      "stall": 8297,
      "Ġincreasing": 8298,
      "ãĢĤåĽłæŃ¤": 8299,
      "Ġyet": 8300,
      "Ġtakes": 8301,
      "Ġactual": 8302,
      "çī©æµģ": 8303,
      "Ind": 8304,
      "ĉĠ": 8305,
      "æ¶Īè´¹èĢħ": 8306,
      ".se": 8307,
      "Ġcapt": 8308,
      ".shape": 8309,
      "åĢ¾": 8310,
      "ä¸Ńåįİæ°ĳæĹı": 8311,
      "Ġface": 8312,
      "å·Ŀ": 8313,
      "Ġenter": 8314,
      "boost": 8315,
      "æıĲåĩºäºĨ": 8316,
      "AU": 8317,
      "åŁºå±Ĥ": 8318,
      "ĠMin": 8319,
      "uy": 8320,
      "åĲĦä¸ª": 8321,
      "é±¼": 8322,
      "ĠTR": 8323,
      "ĠMan": 8324,
      "åĽºå®ļ": 8325,
      "ĠGerman": 8326,
      "Ġbecame": 8327,
      "Ġrecord": 8328,
      "isc": 8329,
      "Ġdescribed": 8330,
      "åºĶå¯¹": 8331,
      "æ¹¾": 8332,
      "flex": 8333,
      "åĬ¨æĢģ": 8334,
      "æĪĳä»¬çļĦ": 8335,
      "åĪĽå»º": 8336,
      "å®«": 8337,
      "ç¥ĸ": 8338,
      "expr": 8339,
      "=\"../../../../": 8340,
      "oring": 8341,
      ")){": 8342,
      "hens": 8343,
      "Ġdev": 8344,
      "ĠCreate": 8345,
      "ä¸»é¢ĺ": 8346,
      "LS": 8347,
      "Ġidea": 8348,
      "_free": 8349,
      "_DIS": 8350,
      "çĽ¸å½ĵ": 8351,
      ":a": 8352,
      "[:": 8353,
      "ho": 8354,
      "aste": 8355,
      "curity": 8356,
      "_channel": 8357,
      "dated": 8358,
      "ĠEV": 8359,
      "{background": 8360,
      "DS": 8361,
      "$,": 8362,
      "_arg": 8363,
      "CK": 8364,
      "Ġthough": 8365,
      "ARAM": 8366,
      "Ġrecomm": 8367,
      "æ¥ļ": 8368,
      "åı¬": 8369,
      "icrosoft": 8370,
      "åħįçĸ«": 8371,
      "flags": 8372,
      ".config": 8373,
      "=l": 8374,
      "':Ċ": 8375,
      "éĩįæĸ°": 8376,
      "Ġproper": 8377,
      "éĩĳå±ŀ": 8378,
      "Ġcrucial": 8379,
      "amma": 8380,
      "ĠSO": 8381,
      ".current": 8382,
      "Ġslow": 8383,
      ",_": 8384,
      "Ġlate": 8385,
      "Ass": 8386,
      ".error": 8387,
      "Ðº": 8388,
      "ĠRec": 8389,
      "-nav": 8390,
      "ĠWorld": 8391,
      "æįŁå®³": 8392,
      "[b": 8393,
      "ĉthis": 8394,
      "inct": 8395,
      "åĩłä¸ª": 8396,
      "Ġcop": 8397,
      "Ġproto": 8398,
      "ĠRead": 8399,
      "aj": 8400,
      "Ġclean": 8401,
      "ĠGr": 8402,
      "Ġtools": 8403,
      "Ġcritical": 8404,
      "æĿĥçĽĬ": 8405,
      "anchor": 8406,
      "{{": 8407,
      "èľ": 8408,
      "å¼ĥ": 8409,
      "volution": 8410,
      "Ġobserved": 8411,
      "é©¾": 8412,
      "ç»ĺ": 8413,
      "TRY": 8414,
      "èĦļ": 8415,
      ".join": 8416,
      "oints": 8417,
      "ÛĮ": 8418,
      "Ġelectr": 8419,
      "Ġcoe": 8420,
      "Us": 8421,
      "Ġbuilt": 8422,
      "-z": 8423,
      "tag": 8424,
      "é¢Ħéĺ²": 8425,
      "Enc": 8426,
      "æ¤įçī©": 8427,
      "ĠRem": 8428,
      "astic": 8429,
      "_K": 8430,
      "Ġmatter": 8431,
      "rive": 8432,
      "ĠUsing": 8433,
      "ASSERT": 8434,
      "Ġpatient": 8435,
      "Ġtraining": 8436,
      ">-": 8437,
      "/+": 8438,
      "#else": 8439,
      "åħģ": 8440,
      "layer": 8441,
      "çĹĩçĬ¶": 8442,
      "ä¸Ŀ": 8443,
      "ĠAcc": 8444,
      "Ġfailed": 8445,
      "åįĩçº§": 8446,
      "ober": 8447,
      "################": 8448,
      "alysis": 8449,
      "enced": 8450,
      "ä½ĵèĤ²": 8451,
      "Ġautom": 8452,
      "graph": 8453,
      "ĠNorth": 8454,
      "(/": 8455,
      "-list": 8456,
      "å¤§ä¼ļ": 8457,
      "apes": 8458,
      "').": 8459,
      "filter": 8460,
      "CON": 8461,
      "_DEC": 8462,
      "abilities": 8463,
      "%;Ċ": 8464,
      "hedu": 8465,
      "ĠMon": 8466,
      "PUT": 8467,
      "-M": 8468,
      "äº®": 8469,
      "Ġcache": 8470,
      "æ·±åº¦": 8471,
      ",ä½Ĩæĺ¯": 8472,
      "'>": 8473,
      "step": 8474,
      "Ġorigin": 8475,
      "Ġshift": 8476,
      "ĠTherefore": 8477,
      "_Get": 8478,
      "Ġnav": 8479,
      "ä½³": 8480,
      "æĬĬæı¡": 8481,
      "éĺ²æŃ¢": 8482,
      "dG": 8483,
      "iques": 8484,
      "%çļĦ": 8485,
      "Layout": 8486,
      "pb": 8487,
      "èĴĻ": 8488,
      "éľĩ": 8489,
      "BJ": 8490,
      "è¾©": 8491,
      "AJ": 8492,
      "({Ċ": 8493,
      "ï¼Įåı¯": 8494,
      "sv": 8495,
      ".height": 8496,
      "Ġestim": 8497,
      "Ġhom": 8498,
      "Ġfeet": 8499,
      "Ġ&=": 8500,
      "ogen": 8501,
      "Ġenh": 8502,
      "match": 8503,
      "media": 8504,
      "vention": 8505,
      "Ġvi": 8506,
      "mitted": 8507,
      "ĠDec": 8508,
      "è´Ńä¹°": 8509,
      "çº¤": 8510,
      "rics": 8511,
      "]}": 8512,
      "=-": 8513,
      "/>": 8514,
      "enn": 8515,
      "Ġinc": 8516,
      "portun": 8517,
      "ï¼ĮéĢļè¿ĩ": 8518,
      "Types": 8519,
      "-weight": 8520,
      "Ġvelocity": 8521,
      "++;Ċ": 8522,
      "æĬĢæľ¯çļĦ": 8523,
      "è¦ĨçĽĸ": 8524,
      "=>{": 8525,
      "etric": 8526,
      "normal": 8527,
      "Ġdiagn": 8528,
      "hest": 8529,
      "iency": 8530,
      "çĲĨæĥ³": 8531,
      "-block": 8532,
      "è§Ħå®ļçļĦ": 8533,
      "ĠOther": 8534,
      "çīĽ": 8535,
      "ĠLevel": 8536,
      "Ġfit": 8537,
      "het": 8538,
      "ros": 8539,
      "Ġsettings": 8540,
      "å¡«": 8541,
      "Ġweek": 8542,
      "_CLK": 8543,
      "DL": 8544,
      "layout": 8545,
      "_args": 8546,
      "Ġeff": 8547,
      "å°±ä¼ļ": 8548,
      ">>>": 8549,
      "Ġloop": 8550,
      "ç»ıå¸¸": 8551,
      "dim": 8552,
      "connect": 8553,
      "Ġcontact": 8554,
      "Ġbecomes": 8555,
      "]\\].": 8556,
      ";case": 8557,
      "Ġissues": 8558,
      "ĠMo": 8559,
      "ä¿Ĺ": 8560,
      "Ġnature": 8561,
      "erve": 8562,
      "è½¨": 8563,
      "styles": 8564,
      "Ġstra": 8565,
      "Ġreflect": 8566,
      "Ġ&&Ċ": 8567,
      "å¦ĤæŃ¤": 8568,
      "Ġsix": 8569,
      "ĠDNA": 8570,
      "ç¬¬åįģ": 8571,
      "åĽ½åĬ¡": 8572,
      "ç§ĺ": 8573,
      "Ġhypot": 8574,
      "_group": 8575,
      "cean": 8576,
      "mosp": 8577,
      "($": 8578,
      "ĠTime": 8579,
      "Last": 8580,
      "ä¹łæĥ¯": 8581,
      "Ġdest": 8582,
      "remove": 8583,
      "ĠEach": 8584,
      "apse": 8585,
      ",åıĪ": 8586,
      "åģ¥åħ¨": 8587,
      "Ke": 8588,
      "-a": 8589,
      "Ġ[]Ċ": 8590,
      "acters": 8591,
      "Ġcolon": 8592,
      "å¡ŀ": 8593,
      "Ġgreen": 8594,
      "ĠEd": 8595,
      "çĽĽ": 8596,
      "é«ĺè´¨éĩı": 8597,
      "ican": 8598,
      ";i": 8599,
      "Ġbig": 8600,
      "åį±æľº": 8601,
      "Ġhar": 8602,
      "osed": 8603,
      "ĠMathem": 8604,
      "å¸¸è§ģ": 8605,
      "_STATUS": 8606,
      "iting": 8607,
      ",åĽłä¸º": 8608,
      "oltage": 8609,
      "åĩºæĿ¥": 8610,
      "Ġcaused": 8611,
      "Container": 8612,
      "_params": 8613,
      "æĪĲéķ¿": 8614,
      ".next": 8615,
      "}^": 8616,
      "Ġconc": 8617,
      "ä»¥åĲİ": 8618,
      "å®ļä½į": 8619,
      "-menu": 8620,
      "sert": 8621,
      "Ġoptional": 8622,
      ")çļĦ": 8623,
      "èµĶåģ¿": 8624,
      "åĽ½æľī": 8625,
      "ç®Ĺæ³ķ": 8626,
      "åĬ¨çī©": 8627,
      "plan": 8628,
      "/r": 8629,
      "Ġsetting": 8630,
      "attribute": 8631,
      ".py": 8632,
      "å®¢è§Ĥ": 8633,
      "åŁºåľ°": 8634,
      "åĢĴ": 8635,
      "è°Ĳ": 8636,
      "ä½ľä¸ļ": 8637,
      "Ġadult": 8638,
      "Ġremain": 8639,
      "Rem": 8640,
      "è¿İ": 8641,
      "ĠFree": 8642,
      "editor": 8643,
      "Ġcontaining": 8644,
      "äºĮåįģ": 8645,
      "åºĨ": 8646,
      ".k": 8647,
      "Qg": 8648,
      "Ġcalculated": 8649,
      "ih": 8650,
      "(F": 8651,
      "Ġgame": 8652,
      "é©¶": 8653,
      "å¥¥": 8654,
      "çĥ§": 8655,
      "Ġleading": 8656,
      "asm": 8657,
      "Vari": 8658,
      "Document": 8659,
      "Ġequival": 8660,
      "æľ¬è´¨": 8661,
      "ĠExt": 8662,
      "{-": 8663,
      "olumns": 8664,
      "ï¼Įè¿ĺ": 8665,
      ".res": 8666,
      "Ġprinciple": 8667,
      "åĬłå¤§": 8668,
      "_version": 8669,
      "ĠOpen": 8670,
      "ĠBase": 8671,
      "aled": 8672,
      "ĠFOR": 8673,
      "å¤ļçļĦ": 8674,
      "ĠLine": 8675,
      "æ¶¨": 8676,
      "éĽ·": 8677,
      "{m": 8678,
      "éŁ³ä¹Ĳ": 8679,
      "pute": 8680,
      "Ġbacter": 8681,
      "Ġchalleng": 8682,
      "ĠHel": 8683,
      "Ġparticularly": 8684,
      "Ġbutton": 8685,
      "Ġbuilding": 8686,
      "ÃŃ": 8687,
      ".io": 8688,
      "itation": 8689,
      "çĶŁæĪĲ": 8690,
      "ä¸ĵåĪ©": 8691,
      "icles": 8692,
      "QR": 8693,
      "arily": 8694,
      "ä¸ŃåĽ½çļĦ": 8695,
      "Sk": 8696,
      "_enc": 8697,
      "Ġreported": 8698,
      "åĮ»åŃ¦": 8699,
      "æ³¨éĩį": 8700,
      "çĶŁéķ¿": 8701,
      "Ġsignificantly": 8702,
      "å°º": 8703,
      "switch": 8704,
      "Ġliter": 8705,
      "Ġoptim": 8706,
      "ried": 8707,
      "çĽĲ": 8708,
      "dat": 8709,
      "Ġstory": 8710,
      "HAL": 8711,
      "ĠWeb": 8712,
      "ACT": 8713,
      "Ġ{\\": 8714,
      ")),Ċ": 8715,
      "ç«ĭæ³ķ": 8716,
      "Ġspre": 8717,
      "Ġupon": 8718,
      "åº¦çļĦ": 8719,
      ",ä»¥åıĬ": 8720,
      "Ġdeep": 8721,
      "Ġdesigned": 8722,
      "ä½ĵéªĮ": 8723,
      "xi": 8724,
      "xsl": 8725,
      "çŀ": 8726,
      "Ġedge": 8727,
      "BD": 8728,
      "Ġvers": 8729,
      "Ġabsolute": 8730,
      "Handle": 8731,
      "ç»ıæµİåıĳå±ķ": 8732,
      "Ġsumm": 8733,
      "Render": 8734,
      "ABILITY": 8735,
      "=self": 8736,
      "ä¹Ļ": 8737,
      ".replace": 8738,
      "Ġsoil": 8739,
      "ï¼Įä¸Ģ": 8740,
      "_NAME": 8741,
      "Ġann": 8742,
      "åĽ½åĬ¡éĻ¢": 8743,
      "åįıåĲĮ": 8744,
      "Ġguide": 8745,
      "Ġjob": 8746,
      "_uint": 8747,
      "Ġattempt": 8748,
      "ï¼Įä»İèĢĮ": 8749,
      "Ġaltern": 8750,
      ",å®ŀçİ°": 8751,
      "å§ĭç»Ī": 8752,
      "MI": 8753,
      "ayman": 8754,
      "ka": 8755,
      "\\\",\\\"": 8756,
      "ä¹Łæľī": 8757,
      "æİĴæĶ¾": 8758,
      "Ġinvolved": 8759,
      "èī¯å¥½çļĦ": 8760,
      ",null": 8761,
      "icks": 8762,
      "************************************************************************": 8763,
      "Ġgenerated": 8764,
      ".parse": 8765,
      "tection": 8766,
      "-style": 8767,
      ".fa": 8768,
      "è¿ŀç»Ń": 8769,
      "Ġscientists": 8770,
      "/n": 8771,
      "ĠHere": 8772,
      "è¾Ĩ": 8773,
      "åħ±åĴĮ": 8774,
      "Ġcountries": 8775,
      "amin": 8776,
      "}_": 8777,
      "è¿¹": 8778,
      "Ġcounter": 8779,
      "ĠScience": 8780,
      "å¦ĩ": 8781,
      "Ġpatterns": 8782,
      "lict": 8783,
      "Ġcos": 8784,
      "Process": 8785,
      "ä»İäºĭ": 8786,
      "çīĻ": 8787,
      "Ġcauses": 8788,
      "Ġgenerate": 8789,
      "<=": 8790,
      "Sp": 8791,
      "Ġpain": 8792,
      "_inter": 8793,
      "Part": 8794,
      "appro": 8795,
      "ads": 8796,
      "æµª": 8797,
      "ipp": 8798,
      ",çĶ±": 8799,
      "angles": 8800,
      "èĪŀ": 8801,
      "Ġice": 8802,
      "mask": 8803,
      "_OFF": 8804,
      "SN": 8805,
      "aN": 8806,
      "äºĭæķħ": 8807,
      "Ġchemical": 8808,
      "Ġ>Ċ": 8809,
      "Call": 8810,
      "document": 8811,
      "Ġexplain": 8812,
      "æĦıåĳ³": 8813,
      "mode": 8814,
      "_err": 8815,
      "åĿĲ": 8816,
      "lections": 8817,
      "çļĦåİĨåı²": 8818,
      "¤Ĳ": 8819,
      "bottom": 8820,
      "æķ°åŃĹåĮĸ": 8821,
      "æııè¿°": 8822,
      "èĬĤçĤ¹": 8823,
      "nswer": 8824,
      "bin": 8825,
      "å®¶éķ¿": 8826,
      "ĠWITH": 8827,
      "æĪª": 8828,
      "rast": 8829,
      "è¯º": 8830,
      "Ġfall": 8831,
      "ä¼¦": 8832,
      "åıªè¦ģ": 8833,
      "focus": 8834,
      "Parameter": 8835,
      "(X": 8836,
      ",åĪĻ": 8837,
      "è¾ĵåħ¥": 8838,
      "Register": 8839,
      "NEL": 8840,
      "æ°ı": 8841,
      "force": 8842,
      "-control": 8843,
      "Ġattribute": 8844,
      "Ġdifferences": 8845,
      "Mz": 8846,
      "ĠIP": 8847,
      "boolean": 8848,
      "ĠResearch": 8849,
      "Ġreli": 8850,
      "scription": 8851,
      "proto": 8852,
      "Ġnut": 8853,
      "spec": 8854,
      "ĠImGui": 8855,
      "Ġearth": 8856,
      "[j": 8857,
      "-D": 8858,
      "parator": 8859,
      "Ġnorm": 8860,
      "(name": 8861,
      "ĠDes": 8862,
      "Ġminutes": 8863,
      "Ġtm": 8864,
      "åķĨæłĩ": 8865,
      "~~~~": 8866,
      "Ġ\"\",Ċ": 8867,
      "æİ¨å¹¿": 8868,
      "ercise": 8869,
      ",ĊĊ": 8870,
      "åħ¬å¹³": 8871,
      "returns": 8872,
      "cn": 8873,
      "Ġerrors": 8874,
      "asure": 8875,
      "parameter": 8876,
      "ĠSouth": 8877,
      "_API": 8878,
      "RESS": 8879,
      "GET": 8880,
      "post": 8881,
      "OLD": 8882,
      "Ġnotice": 8883,
      "ĠGNU": 8884,
      ".map": 8885,
      "(null": 8886,
      "èĭ±åĽ½": 8887,
      "/P": 8888,
      "Ġexperi": 8889,
      "Ġsuff": 8890,
      "ä»ĸä»¬çļĦ": 8891,
      "èĦı": 8892,
      "abit": 8893,
      "æĻ¶": 8894,
      "Ġperformed": 8895,
      "ĠĠĠĠĠĠĠĠĠĠĠĠĠĠĠĠĠĠĠĠĠĠĠĠĠĠĠĠĠĠĠĠĠĠĠĠĠĠĠĠĠĠĠĠĠĠĠĠĠĠĠĠĠĠĠĠĠĠĠĠĠĠĠĠĠĠĠĠĠĠĠĠĠĠĠĠĠĠĠĠĠĠĠĠĠĠĠĠĠĠĠĠĠĠĠĠĠĠĠĠĠĠĠĠĠĠĠĠĠĠĠĠĠĠĠĠĠĠĠĠĠĠĠĠĠĠĠĠ": 8896,
      "ä¿Ħ": 8897,
      "Ġalloc": 8898,
      "è¯ģåĪ¸": 8899,
      "atically": 8900,
      "ensive": 8901,
      "hors": 8902,
      "ä¸Ĭåįĩ": 8903,
      "%)": 8904,
      "Fr": 8905,
      "åľĪ": 8906,
      "ï¼ĮæĪĳ": 8907,
      "jection": 8908,
      "tmp": 8909,
      "ĠThus": 8910,
      "æĿĨ": 8911,
      "Timeout": 8912,
      "Ġrepresents": 8913,
      "herited": 8914,
      "dest": 8915,
      "TT": 8916,
      "dict": 8917,
      "agma": 8918,
      "va": 8919,
      "ç»ĻäºĪ": 8920,
      ".state": 8921,
      "semb": 8922,
      "çļĩ": 8923,
      "ĠSH": 8924,
      "-L": 8925,
      ",æıĲé«ĺ": 8926,
      "åħ´è¶£": 8927,
      "ICENSE": 8928,
      "Ġstrateg": 8929,
      "å¸ĥå±Ģ": 8930,
      "_TO": 8931,
      "Ġsources": 8932,
      "Cache": 8933,
      ".update": 8934,
      "First": 8935,
      "åĴĮç¤¾ä¼ļ": 8936,
      "èº«ä½ĵ": 8937,
      "Layman": 8938,
      "Ġacceler": 8939,
      "tc": 8940,
      "Ġmoment": 8941,
      "Ġdrug": 8942,
      "é©±åĬ¨": 8943,
      "çĶŁçļĦ": 8944,
      "ulum": 8945,
      "temp": 8946,
      "çĪĨ": 8947,
      "access": 8948,
      "Ġ{'": 8949,
      "Ġallowed": 8950,
      "Ġmanagement": 8951,
      "andid": 8952,
      "åħ¸åŀĭ": 8953,
      "store": 8954,
      "Ġmodern": 8955,
      "_or": 8956,
      "åĲĪæ³ķ": 8957,
      "Ġregard": 8958,
      "ney": 8959,
      "/>Ċ": 8960,
      "ĠFrom": 8961,
      "æĽ´å¥½": 8962,
      "è®¤å®ļ": 8963,
      "Ġfixed": 8964,
      "ĊĊĊĊĊĊĊĊĊĊĊĊĊĊĊĊ": 8965,
      "python": 8966,
      ".as": 8967,
      "YY": 8968,
      "Option": 8969,
      ";a": 8970,
      "ĠAb": 8971,
      "ronic": 8972,
      "å§ĵ": 8973,
      "ĠResult": 8974,
      "Ġpict": 8975,
      "Ġopportun": 8976,
      "éĥ¨ç½²": 8977,
      "Ġsets": 8978,
      "ĠWest": 8979,
      "Teacher": 8980,
      "irq": 8981,
      "ç®±": 8982,
      "ĠMem": 8983,
      "Ġthus": 8984,
      "è´¯å½»": 8985,
      "sa": 8986,
      "icode": 8987,
      "Ġgene": 8988,
      "ç©ºæ°Ķ": 8989,
      "umb": 8990,
      "herit": 8991,
      "åħĥç´ł": 8992,
      "Ġthrow": 8993,
      "Ġelectric": 8994,
      "ĠSp": 8995,
      ",æĪĳåĽ½": 8996,
      "Ġquadr": 8997,
      "_status": 8998,
      ".apply": 8999,
      "æķĻæĿĲ": 9000,
      "Ġslo": 9001,
      "Ġprocesses": 9002,
      "ãĢĤèĢĮ": 9003,
      "qqqqqqqq": 9004,
      "Ġoutside": 9005,
      "ä¸ľè¥¿": 9006,
      "SHIFT": 9007,
      "èĤ¿çĺ¤": 9008,
      "Float": 9009,
      "_trans": 9010,
      "Hash": 9011,
      "åĪĬ": 9012,
      "çī¢": 9013,
      "ä¸Ģä½ĵ": 9014,
      "å°ıæĹ¶": 9015,
      "Ġfigure": 9016,
      "çŃīçŃī": 9017,
      "ĠSCB": 9018,
      "Ġangles": 9019,
      "etry": 9020,
      "Ġlot": 9021,
      "-kind": 9022,
      "inner": 9023,
      ">,Ċ": 9024,
      "Graph": 9025,
      "Ġsave": 9026,
      "ĠGu": 9027,
      "standing": 9028,
      "Ġsend": 9029,
      "_line": 9030,
      "Post": 9031,
      "Ġproduced": 9032,
      ",'": 9033,
      "é«ĺæķĪ": 9034,
      "Ġattack": 9035,
      "Ġpi": 9036,
      ";margin": 9037,
      "_pos": 9038,
      "è¡°": 9039,
      "ĠUnder": 9040,
      "èĻ«": 9041,
      "Ġdomain": 9042,
      "-image": 9043,
      "Ġinfection": 9044,
      "Ġ{#": 9045,
      "JSON": 9046,
      "Exp": 9047,
      "(),(": 9048,
      "vertical": 9049,
      "æ°ĳäºĭ": 9050,
      "ç§ĭ": 9051,
      "ä¸ŃåĽ½åħ±äº§åħļ": 9052,
      "æľīæīĢ": 9053,
      "æķĪåºĶ": 9054,
      "dom": 9055,
      "TS": 9056,
      "ç¼´": 9057,
      "Ġmusc": 9058,
      "Ġoccurs": 9059,
      "tl": 9060,
      "çļĦæĹ¶éĹ´": 9061,
      "ley": 9062,
      "ecause": 9063,
      "-C": 9064,
      "å°½ç®¡": 9065,
      "_dis": 9066,
      "/D": 9067,
      "çļĦç¤¾ä¼ļ": 9068,
      "æŃ£å¼ı": 9069,
      ":'": 9070,
      "ä»£çłģ": 9071,
      "Ġ([@": 9072,
      "å¿ħçĦ¶": 9073,
      "olved": 9074,
      "Ġmotion": 9075,
      "Ġissue": 9076,
      "edge": 9077,
      "hw": 9078,
      "),(": 9079,
      "*(": 9080,
      "Ġsimply": 9081,
      "æ¢¦": 9082,
      "æ·»": 9083,
      "Ġmeet": 9084,
      "æķ´åĲĪ": 9085,
      "Ġhash": 9086,
      "è¿½æ±Ĥ": 9087,
      "åŃ¦èĢħ": 9088,
      "ä¸½": 9089,
      "Mon": 9090,
      "Am": 9091,
      "WD": 9092,
      "Ġreach": 9093,
      "Ġsys": 9094,
      "placement": 9095,
      "osite": 9096,
      "è°ĭ": 9097,
      "Ġmedical": 9098,
      "Ġalgorithm": 9099,
      "ä¸»è¦ģæĺ¯": 9100,
      "Ġupper": 9101,
      ",æĬĬ": 9102,
      "olar": 9103,
      "Ġled": 9104,
      "ä¿®æĶ¹": 9105,
      "åĽ½å®¶çļĦ": 9106,
      "æĸĩåŃĹ": 9107,
      "lg": 9108,
      "ä¸ºä»Ģä¹Ī": 9109,
      "äººå·¥æĻºèĥ½": 9110,
      "ĠBo": 9111,
      "ĠIndex": 9112,
      "erson": 9113,
      "ailed": 9114,
      "Ġreserved": 9115,
      "Interface": 9116,
      "ails": 9117,
      "Descript": 9118,
      "ĠMore": 9119,
      "[s": 9120,
      "!!!!": 9121,
      "æķħäºĭ": 9122,
      "Ġnullptr": 9123,
      "ialize": 9124,
      "Ġotherwise": 9125,
      "ĠPython": 9126,
      "ament": 9127,
      "before": 9128,
      "éĤ£äºĽ": 9129,
      "Ġwait": 9130,
      "Ġlibrary": 9131,
      "ï¼ĮåĽłæŃ¤": 9132,
      "Ġrules": 9133,
      "}^{": 9134,
      "ĠPM": 9135,
      "ele": 9136,
      "present": 9137,
      "%ï¼Į": 9138,
      "arp": 9139,
      ".ä½Ĩ": 9140,
      "Ġfractions": 9141,
      "Ġround": 9142,
      "[-": 9143,
      "æ¬§æ´²": 9144,
      "ĠAmerica": 9145,
      "*Ċ": 9146,
      "ĉf": 9147,
      "UFF": 9148,
      "-pre": 9149,
      "é«ĺçŃī": 9150,
      "menu": 9151,
      "Ġmovement": 9152,
      "ĠSelf": 9153,
      "åħļåĳĺ": 9154,
      "äº§çĶŁçļĦ": 9155,
      "Ġrout": 9156,
      "Properties": 9157,
      "ĠĠĠĠĠĠĠĠĠĠĠĠĠĠĠĠĠĠĠĠĠĠĠĠĠĠĠĠĠĠĠĠĠĠĠĠĠĠĠĠ": 9158,
      "æĹ¦": 9159,
      ")-": 9160,
      "Ġ(((": 9161,
      "kens": 9162,
      "åŁºç¡Ģè®¾æĸ½": 9163,
      "HY": 9164,
      "éĢļçŁ¥": 9165,
      "hr": 9166,
      "æĿĥåĬĽ": 9167,
      "çĤ¼": 9168,
      "ä½łçļĦ": 9169,
      "Ġforward": 9170,
      "_dim": 9171,
      "æīĵéĢł": 9172,
      "æĹĭ": 9173,
      "Fig": 9174,
      "æłĩå¿Ĺ": 9175,
      "ĠMask": 9176,
      "èĭ±è¯Ń": 9177,
      "Ġeffort": 9178,
      "Ġelem": 9179,
      "è¯ĬæĸŃ": 9180,
      "éĿĴå¹´": 9181,
      "ĠSim": 9182,
      "ï¼Įè®©": 9183,
      "Ġ>::": 9184,
      ".H": 9185,
      "Ġscript": 9186,
      "èĤ¡ä¸ľ": 9187,
      "Ġemploy": 9188,
      "å½ĵåľ°": 9189,
      "Work": 9190,
      "è¿ħéĢŁ": 9191,
      "Ġ```": 9192,
      "ĠHealth": 9193,
      "ĠWhile": 9194,
      "è®¾ç«ĭ": 9195,
      "_min": 9196,
      "Ġdirectory": 9197,
      "Ġthemselves": 9198,
      "ä¼į": 9199,
      "ĠUnion": 9200,
      "assets": 9201,
      "_SHIFT": 9202,
      "Ġenum": 9203,
      "Ġimplementation": 9204,
      "èį·": 9205,
      "ĉgoto": 9206,
      ";-": 9207,
      "ĠFe": 9208,
      "ĠOver": 9209,
      "para": 9210,
      "viewer": 9211,
      "_url": 9212,
      "å°¤åħ¶æĺ¯": 9213,
      "Ġadapt": 9214,
      "å¹¸": 9215,
      "Ġfast": 9216,
      "Ġss": 9217,
      "Ġtravel": 9218,
      ")}}": 9219,
      "ÙĬ": 9220,
      "iffer": 9221,
      "è°ĥèĬĤ": 9222,
      "ĠDep": 9223,
      "Ġago": 9224,
      "stant": 9225,
      "mathbb": 9226,
      "ALSE": 9227,
      "],\"": 9228,
      "_BL": 9229,
      "ened": 9230,
      "rier": 9231,
      "_on": 9232,
      "Ġphot": 9233,
      "å¦Ĥä¸ĭ": 9234,
      "æĶ¹éĢł": 9235,
      "çļĦåĨħå®¹": 9236,
      "Use": 9237,
      "aim": 9238,
      "Ġcomes": 9239,
      "wd": 9240,
      "vb": 9241,
      "pth": 9242,
      "å¤ľ": 9243,
      "Down": 9244,
      "ĠEXPECT": 9245,
      "FBQ": 9246,
      "åĴ¨": 9247,
      "Ġjson": 9248,
      "_KEY": 9249,
      "})(),(": 9250,
      "ï¼Įå¦Ĥæŀľ": 9251,
      "linux": 9252,
      "Ġfire": 9253,
      "_<": 9254,
      "åħ¬ä¼Ĺ": 9255,
      "<<<<": 9256,
      "Ġ{}": 9257,
      "è¡ĮçļĦ": 9258,
      "_width": 9259,
      "æ¨¡åĿĹ": 9260,
      "Ġcorresponding": 9261,
      "rate": 9262,
      "èº«ä»½": 9263,
      "Ġatmosp": 9264,
      "ç»ª": 9265,
      "uel": 9266,
      "è¿ĻéĩĮ": 9267,
      "iki": 9268,
      "olog": 9269,
      "ĠUSART": 9270,
      "\";})(),(": 9271,
      "âĢ¢": 9272,
      "ä¾Ľç»Ļ": 9273,
      "rm": 9274,
      "æ£®": 9275,
      "Ġfinding": 9276,
      "è¿Ŀæ³ķ": 9277,
      "zh": 9278,
      "æĲľ": 9279,
      "Ġmiddle": 9280,
      "æī°": 9281,
      "_sp": 9282,
      "Ġlesson": 9283,
      "éĢĶå¾Ħ": 9284,
      "ĠVal": 9285,
      "çģ¯": 9286,
      "åĻ¨çļĦ": 9287,
      "è§Ĩé¢ĳ": 9288,
      "VALID": 9289,
      "Column": 9290,
      "Ġmember": 9291,
      "Ġeasy": 9292,
      "æĿ¨": 9293,
      "æĹ¥å¸¸": 9294,
      "$$ĊĊ": 9295,
      "Menu": 9296,
      "urface": 9297,
      "PF": 9298,
      "Ġstress": 9299,
      "vey": 9300,
      "Ġalgebra": 9301,
      "ological": 9302,
      "æ¢ģ": 9303,
      "Delta": 9304,
      "termin": 9305,
      "åį±éĻ©": 9306,
      ".lang": 9307,
      "å¤ĸéĥ¨": 9308,
      "_states": 9309,
      "ĠOk": 9310,
      "Ġdegrees": 9311,
      "Ġplatform": 9312,
      ".ä»İ": 9313,
      ":this": 9314,
      "ĠCode": 9315,
      "iling": 9316,
      "_sym": 9317,
      "Struct": 9318,
      "è·Ŀç¦»": 9319,
      "Iterator": 9320,
      "ä¹³": 9321,
      "Ġtesting": 9322,
      "è¿ĳå¹´æĿ¥": 9323,
      "Ġexpressed": 9324,
      "Øª": 9325,
      "åĲĮæł·": 9326,
      "=h": 9327,
      "å£ģ": 9328,
      "Display": 9329,
      "çļĦäºĭ": 9330,
      "<script": 9331,
      "PROC": 9332,
      "åĲĮåŃ¦": 9333,
      ";e": 9334,
      "osa": 9335,
      "phas": 9336,
      "Ġboost": 9337,
      "channel": 9338,
      "âĶĢâĶĢâĶĢâĶĢ": 9339,
      "Ġ});ĊĊ": 9340,
      "Nj": 9341,
      "Ġfun": 9342,
      "Params": 9343,
      "å®¡æŁ¥": 9344,
      "Ġ(-": 9345,
      ".cont": 9346,
      "ĠTH": 9347,
      "Dep": 9348,
      "Parent": 9349,
      "EAD": 9350,
      "Vec": 9351,
      "unch": 9352,
      "aved": 9353,
      "Ġprior": 9354,
      "Ġclinical": 9355,
      "(st": 9356,
      "å®¡è®¡": 9357,
      "ERROR": 9358,
      "Current": 9359,
      "ĠTheorem": 9360,
      "Ġcentral": 9361,
      "Ġjo": 9362,
      "STAT": 9363,
      "åħ»èĢģ": 9364,
      "Ġnor": 9365,
      "ç»ıåİĨ": 9366,
      "_VERSION": 9367,
      "Ñı": 9368,
      "{color": 9369,
      "Ġ\"%": 9370,
      "éĺ¶çº§": 9371,
      "è°ģ": 9372,
      "card": 9373,
      "æ¡Ĩæŀ¶": 9374,
      "æ³¥": 9375,
      "ĠParam": 9376,
      "Ġservices": 9377,
      "Title": 9378,
      "Fl": 9379,
      "iber": 9380,
      "æĦıåĳ³çĿĢ": 9381,
      "initions": 9382,
      "ffffff": 9383,
      "rompt": 9384,
      "Ġ^": 9385,
      "BS": 9386,
      "Ġcollection": 9387,
      "iation": 9388,
      "ĠAm": 9389,
      "await": 9390,
      "duc": 9391,
      "å£¤": 9392,
      "alled": 9393,
      "))}": 9394,
      "ribe": 9395,
      "ĠPost": 9396,
      "åħ¬åı¸çļĦ": 9397,
      "trunc": 9398,
      "Ġtherefore": 9399,
      "/com": 9400,
      "_weight": 9401,
      "expected": 9402,
      "åľºæĻ¯": 9403,
      "è½¬æį¢": 9404,
      ",(": 9405,
      "UK": 9406,
      "(z": 9407,
      "reed": 9408,
      "[k": 9409,
      "ĠChrist": 9410,
      "atin": 9411,
      "Ġradius": 9412,
      "rd": 9413,
      "och": 9414,
      ".net": 9415,
      "ç±į": 9416,
      ".line": 9417,
      "Ġforces": 9418,
      "-gradient": 9419,
      "Ġ${": 9420,
      "ĠDr": 9421,
      "istribution": 9422,
      "lambda": 9423,
      "WI": 9424,
      "ĠLog": 9425,
      "Do": 9426,
      "tra": 9427,
      "å¥ĭæĸĹ": 9428,
      "sb": 9429,
      "fit": 9430,
      "_MEM": 9431,
      "precated": 9432,
      "Det": 9433,
      "åĴ¨è¯¢": 9434,
      "è¾ĵåĩº": 9435,
      "åĲ¯åĬ¨": 9436,
      "Ġwon": 9437,
      "Ġacid": 9438,
      ",åºĶ": 9439,
      "æŁĲäºĽ": 9440,
      "è®¤çŁ¥": 9441,
      "ĠBritish": 9442,
      "DT": 9443,
      "Ġstatement": 9444,
      "çĽ¸åħ³çļĦ": 9445,
      "Click": 9446,
      ";background": 9447,
      "ĠAg": 9448,
      "fin": 9449,
      "Channel": 9450,
      "_INLINE": 9451,
      "åĽ¾åĥı": 9452,
      "Ġfollows": 9453,
      "Av": 9454,
      "ĠNum": 9455,
      "-sc": 9456,
      "åľ°äº§": 9457,
      ".top": 9458,
      "Ġip": 9459,
      "htm": 9460,
      "Ġformed": 9461,
      "çŃīæĸ¹éĿ¢": 9462,
      "WORD": 9463,
      "Ùĩ": 9464,
      "Ġparser": 9465,
      "ä¸įåĪ°": 9466,
      "Ġfish": 9467,
      "(in": 9468,
      "çİ°åľº": 9469,
      "ĠMulti": 9470,
      "èĲ¥åħ»": 9471,
      "æİ¥è§¦": 9472,
      "yes": 9473,
      "ä¸įè¦ģ": 9474,
      "çļĦåħ³ç³»": 9475,
      "Ġresulting": 9476,
      "oltip": 9477,
      "çī¹æĢ§": 9478,
      "ief": 9479,
      "isions": 9480,
      "æĬ¼": 9481,
      "åħ¶å®ŀ": 9482,
      "_op": 9483,
      "_element": 9484,
      "Ġbatch": 9485,
      "iece": 9486,
      "ico": 9487,
      "_at": 9488,
      "Ġsession": 9489,
      "Ġindependent": 9490,
      "Ġ\\)ĊĊ": 9491,
      ".*": 9492,
      "Ġvariety": 9493,
      "rec": 9494,
      "Ġpersonal": 9495,
      "Ġund": 9496,
      "Ġcolumns": 9497,
      "Ġthroughout": 9498,
      "ä¹łè¿ĳå¹³æĢ»ä¹¦è®°": 9499,
      "åĴĮåıĳå±ķ": 9500,
      "Can": 9501,
      "_cache": 9502,
      "å¢Ļ": 9503,
      "Ġ+Ċ": 9504,
      "Symbol": 9505,
      "å¿½": 9506,
      "ç¤ºèĮĥ": 9507,
      "Ġ{}Ċ": 9508,
      "Hz": 9509,
      "Ġexists": 9510,
      "æķĪçĽĬ": 9511,
      "Ġskin": 9512,
      "'),": 9513,
      "åı¯èĥ½ä¼ļ": 9514,
      "åŁİéķĩ": 9515,
      "Ġsolving": 9516,
      "Ġhydro": 9517,
      "æĪĲç»©": 9518,
      "æĶ¶éĽĨ": 9519,
      "åħģè®¸": 9520,
      "afety": 9521,
      "Sec": 9522,
      "rome": 9523,
      "_eq": 9524,
      "VR": 9525,
      "åĳĪçİ°": 9526,
      "transition": 9527,
      "Ø¯": 9528,
      "Ġproport": 9529,
      "_PIN": 9530,
      "_entry": 9531,
      "_new": 9532,
      ".split": 9533,
      "/javascript": 9534,
      "Ġexisting": 9535,
      "ĠII": 9536,
      "Ġstreng": 9537,
      "gh": 9538,
      "Ġproced": 9539,
      "Ġstage": 9540,
      "å·§": 9541,
      "_ASSERT": 9542,
      "Ġprop": 9543,
      "Ġidx": 9544,
      "Ġcreating": 9545,
      "Mark": 9546,
      "''": 9547,
      "ĠInc": 9548,
      "FI": 9549,
      "Ġoverride": 9550,
      ".offset": 9551,
      "IRQ": 9552,
      "å¤ļæł·": 9553,
      "FA": 9554,
      "ooks": 9555,
      "Ġcomment": 9556,
      "author": 9557,
      ".mark": 9558,
      "æī£": 9559,
      "èĸĦ": 9560,
      "çļĦåŁºç¡Ģä¸Ĭ": 9561,
      "åĽ´ç»ķ": 9562,
      "-level": 9563,
      "Ġideas": 9564,
      "_all": 9565,
      "aly": 9566,
      "çļĦèĥ½åĬĽ": 9567,
      "ä¼łè¾ĵ": 9568,
      "run": 9569,
      "åīįæıĲ": 9570,
      ":[\"": 9571,
      ",åĮħæĭ¬": 9572,
      "èĻļæĭŁ": 9573,
      "Ġprice": 9574,
      "Ġhistor": 9575,
      "Ġexactly": 9576,
      "å«": 9577,
      "ç±»ä¼¼": 9578,
      "Ġchanged": 9579,
      "åĬŀçĲĨ": 9580,
      ".å¦Ĥæŀľ": 9581,
      "ĠCD": 9582,
      "Ġtypically": 9583,
      "rong": 9584,
      "_event": 9585,
      "CLK": 9586,
      "Ġ$$": 9587,
      "imension": 9588,
      "Ġfem": 9589,
      "_MAC": 9590,
      "Ġtaking": 9591,
      "éļľç¢į": 9592,
      "abc": 9593,
      ",åħ¶ä¸Ń": 9594,
      "\");ĊĊ": 9595,
      "SSL": 9596,
      "Ġreset": 9597,
      "greg": 9598,
      "-N": 9599,
      ",çĶ¨": 9600,
      "_ad": 9601,
      "Ġutil": 9602,
      "è£ħç½®": 9603,
      "Ġsolar": 9604,
      "gu": 9605,
      "inally": 9606,
      "æ»¤": 9607,
      "eros": 9608,
      "-header": 9609,
      "ĠControl": 9610,
      "Ġsegment": 9611,
      ".element": 9612,
      "After": 9613,
      ",æ¯ı": 9614,
      "åĪ©çİĩ": 9615,
      "TIM": 9616,
      "åĲ¸æĶ¶": 9617,
      "ette": 9618,
      "&&!": 9619,
      "Ġmind": 9620,
      "help": 9621,
      "ï¼īĊ": 9622,
      "Ġgenerally": 9623,
      "-F": 9624,
      "_PLL": 9625,
      "Ġinsert": 9626,
      "æŃ»äº¡": 9627,
      "Ġcompare": 9628,
      "];ĊĊ": 9629,
      "Ġalmost": 9630,
      "Ġonclick": 9631,
      "Ġliving": 9632,
      "<B": 9633,
      "Ġrelease": 9634,
      "]:Ċ": 9635,
      "uly": 9636,
      "_EQ": 9637,
      "Ġcharacters": 9638,
      "ĠLear": 9639,
      "åĪ¶ä½ľ": 9640,
      "Ġtechniques": 9641,
      "æł¼å±Ģ": 9642,
      "å¯¹å¤ĸ": 9643,
      "Ġaria": 9644,
      "-flex": 9645,
      "éĢĤåĲĪ": 9646,
      "lling": 9647,
      "åĪ¶éĢłä¸ļ": 9648,
      "-label": 9649,
      "delta": 9650,
      "Ġsequ": 9651,
      "åĪ©æ¶¦": 9652,
      "Widget": 9653,
      "Ġdecimal": 9654,
      "Let": 9655,
      "odies": 9656,
      "Ġresistance": 9657,
      "ja": 9658,
      "æľĭ": 9659,
      "_J": 9660,
      "å¤§æķ°æį®": 9661,
      "Ġdeli": 9662,
      "ä¸ĢåĪĩ": 9663,
      "stitution": 9664,
      "ĠVersion": 9665,
      ".left": 9666,
      "Ġwhose": 9667,
      "dy": 9668,
      "OF": 9669,
      "ĠChar": 9670,
      "_ADDR": 9671,
      "ä¸Ĭå¸Ĥ": 9672,
      "æĸĩçĮ®": 9673,
      "fill": 9674,
      "-A": 9675,
      "_GET": 9676,
      "åħ¬æ°ĳ": 9677,
      "ĠDesc": 9678,
      "unt": 9679,
      "é¤Ĳ": 9680,
      "èĢĥæł¸": 9681,
      "Ġ\"/": 9682,
      "çĽ¸åºĶçļĦ": 9683,
      "-B": 9684,
      "otion": 9685,
      "æĽ´æĸ°": 9686,
      "ipeline": 9687,
      "Ġefficient": 9688,
      "=u": 9689,
      "Ġfoc": 9690,
      "vision": 9691,
      "ARD": 9692,
      "chron": 9693,
      "UV": 9694,
      ".slice": 9695,
      "çĪ¶æ¯į": 9696,
      "win": 9697,
      "Ġaff": 9698,
      "/M": 9699,
      ".A": 9700,
      "]);": 9701,
      "Ġ(_": 9702,
      "é¹": 9703,
      "Ġdamage": 9704,
      "âĢĻre": 9705,
      "Ġmid": 9706,
      "erences": 9707,
      "prehens": 9708,
      "Windows": 9709,
      "ataset": 9710,
      "Ġnational": 9711,
      "Ġplanet": 9712,
      "close": 9713,
      "æīĢåľ¨": 9714,
      "Ġimmediate": 9715,
      "Ġparallel": 9716,
      "åĭĩ": 9717,
      "rum": 9718,
      "_comp": 9719,
      "Ġadmin": 9720,
      "Ġgrav": 9721,
      "Ġplane": 9722,
      "å®ĩ": 9723,
      "Ġpolitical": 9724,
      "å®ŀéĻħä¸Ĭ": 9725,
      "GS": 9726,
      "ãĢĤä½Ĩ": 9727,
      ".i": 9728,
      "Ġmonth": 9729,
      "ĠGraph": 9730,
      "ocr": 9731,
      "ously": 9732,
      "FNGL": 9733,
      "Ġphase": 9734,
      "åŃĻ": 9735,
      "operator": 9736,
[...]
